{"</s>": 0, "<unk>": 1, ".": 2, ",": 3, "\u2581the": 4, "s": 5, "\u2581of": 6, "\u2581to": 7, "\u2581for": 8, "\u2581og": 9, "\u2581and": 10, "\u2581i": 11, "\u2581at": 12, "\u2581af": 13, "\u2581": 14, "\u2581in": 15, "\u2581-": 16, "\u2581er": 17, "\u2581a": 18, "'": 19, "\u2581til": 20, "-": 21, "\u2581I": 22, "?": 23, "\u2581(": 24, "\u2581en": 25, "t": 26, "\u2581det": 27, ":": 28, "\u2581is": 29, "\u2581p\u00e5": 30, "e": 31, "\u2581med": 32, "\u2581that": 33, "\u2581de": 34, "\u2581der": 35, ")": 36, "\u2581den": 37, "\u2581you": 38, "\u2581ikke": 39, "\u2581on": 40, "\u2581be": 41, "er": 42, "\u2581som": 43, "\u2581om": 44, "\u2581har": 45, "en": 46, "\u2581with": 47, "\u2581\"": 48, "\u2581it": 49, "\u2581The": 50, "\u2581by": 51, "\u2581have": 52, "\u2581du": 53, "\u2581et": 54, "r": 55, "\u2581kan": 56, "\u2581are": 57, "!": 58, "\u2581this": 59, "\u2581as": 60, "\u2581Det": 61, "\u2581or": 62, "\u2581not": 63, "ing": 64, "\u2581jeg": 65, "\u2581eller": 66, "n": 67, "\u2581Jeg": 68, "\u2581fra": 69, ";": 70, "\u2581from": 71, "d": 72, "\u2581vil": 73, "\u2581skal": 74, "a": 75, "\u2581vi": 76, "\u2581we": 77, "\u2581ved": 78, "\u2581was": 79, "\u2581which": 80, "y": 81, "\u2581an": 82, "\u2581S": 83, "\u2581s": 84, "/": 85, "\u2581over": 86, "\u2581var": 87, "\u2581will": 88, "\u2581your": 89, "\u2581A": 90, "ne": 91, "et": 92, "\u2581L": 93, "\u2581can": 94, "\u2581De": 95, "\u2581under": 96, "\u2581s\u00e5": 97, "\u2581all": 98, "ed": 99, "m": 100, "de": 101, "\u2581has": 102, "\u2581European": 103, "\u2581B": 104, "\u2581You": 105, "\u2581No": 106, "re": 107, "\u2581v\u00e6re": 108, "\u2581Commission": 109, "\u25811": 110, "\u2581her": 111, "\u2581It": 112, "ly": 113, "\u2581me": 114, "\u2581C": 115, "\u2581shall": 116, "\u2581In": 117, "\u2581men": 118, "\u2581Vi": 119, "\u2581Den": 120, "\u2581denne": 121, "\u2581dig": 122, "\u2581do": 123, "\u2581For": 124, "\u2581mig": 125, "h": 126, "\u2581Article": 127, "S": 128, "\u2581out": 129, "\u2581he": 130, "\u2581sig": 131, "\u2581ogs\u00e5": 132, "\u2581alle": 133, "\u2581they": 134, "\"": 135, "\u2581one": 136, "\u2581my": 137, "\u2581ud": 138, "b": 139, "\u2581been": 140, "\u2581up": 141, "\u2581should": 142, "\u2581O": 143, "\u2581other": 144, "\u2581efter": 145, "\u2581man": 146, "\u2581We": 147, "\u2581but": 148, "\u2581han": 149, "\u2581their": 150, "\u2581what": 151, "\u2581more": 152, "\u2581This": 153, "\u25812": 154, "\u2581its": 155, "\u2581H": 156, "\u2581Du": 157, ").": 158, "\u2581artikel": 159, "i": 160, "\u2581dette": 161, "\u2581Member": 162, "\u2581blev": 163, "\u2581Regulation": 164, "\u2581F": 165, "\u2581Council": 166, "\u2581so": 167, "\u2581Kommissionen": 168, "\u2581about": 169, "\u2581there": 170, "\u2581also": 171, "in": 172, "\u2581m\u00e5": 173, "\u2581would": 174, "\u2581EU": 175, "\u2581D": 176, "\u2581know": 177, "),": 178, "\u2581no": 179, "\u2581P": 180, "\u2581What": 181, "\u2581time": 182, "\u2581end": 183, "\u2581may": 184, "\u2581T": 185, "\u2581like": 186, "\u2581our": 187, "\u2581nr": 188, "\u2581if": 189, "\u2581He": 190, "\u2581his": 191, "\u2581Community": 192, "\u2581forordning": 193, "\u2581andre": 194, "\u2581hvor": 195, "\u2581p": 196, "\u2581were": 197, "\u2581op": 198, "\u2581'": 199, "es": 200, "\u2581E": 201, "\u2581dem": 202, "\u2581States": 203, "\u2581deres": 204, "\u2581din": 205, "\u2581any": 206, "o": 207, "\u2581Hvad": 208, ".\"": 209, "\u2581os": 210, "\u25813": 211, "g": 212, "\u2581mere": 213, "\u2581who": 214, "\u2581into": 215, "\u2581f": 216, "ll": 217, "\u2581Union": 218, "\u2581hvis": 219, "\u2581just": 220, "\u2581nu": 221, "\u25815": 222, "\u2581disse": 223, "l": 224, "\u2581Der": 225, "\u2581than": 226, "\u2581K": 227, "\u2581hvad": 228, "\u2581them": 229, "C": 230, "\u2581had": 231, "\u2581must": 232, "\u2581Mr": 233, "\u2581here": 234, "or": 235, "le": 236, "\u2581new": 237, "\u2581b": 238, "\u2581And": 239, "\u2581M": 240, "al": 241, "\u2581information": 242, "\u2581right": 243, "\u2581when": 244, "\u2581only": 245, "\u2581get": 246, "\u2581these": 247, "\u2581G": 248, "\u2581\u00e5r": 249, "\u2581Men": 250, "c": 251, "\u2581meget": 252, "\u25814": 253, "\u2581mellem": 254, "\u2581such": 255, "B": 256, "erne": 257, "\u2581him": 258, "\u2581stk": 259, "\u2581kunne": 260, "\u2581En": 261, "\u2581noget": 262, "k": 263, "\u2581us": 264, "\u2581some": 265, "EF": 266, "\u2581vore": 267, "\u2581don": 268, "\u2581ind": 269, "\u2581b\u00f8r": 270, "\u2581did": 271, "\u2581Europa": 272, "nde": 273, "ske": 274, "EC": 275, "\u2581ham": 276, "\u2581N": 277, "on": 278, "\u2581ville": 279, "\u2581Han": 280, "\u2581kun": 281, "A": 282, "\u2581inden": 283, "\u2581God": 284, "\u2581need": 285, "\u2581R": 286, "\u2581now": 287, "\u2581down": 288, "\u2581min": 289, "\u2581go": 290, "\u2581g\u00f8re": 291, "\u258110": 292, "\u2581Parliament": 293, "\u2581Europ\u00e6iske": 294, "\u2581those": 295, "\u2581da": 296, "f": 297, "\u2581between": 298, "\u2581havde": 299, "\u2581take": 300, "\u2581give": 301, "\u2581n\u00e5r": 302, "\u25816": 303, "\u2581Ja": 304, "\u2581use": 305, "ve": 306, "\u2581where": 307, "\u2581Hvis": 308, "\u2581That": 309, "\u2581se": 310, "\u2581selv": 311, "\u2581blive": 312, "\u2581system": 313, "\u2581people": 314, "\u2581mod": 315, "\u2581Og": 316, "ka": 317, "\u2581g": 318, "H": 319, "\u2581sin": 320, "\u2581work": 321, "\u2581make": 322, "\u2581f\u00e5": 323, "\u2581&": 324, "\u2581data": 325, "\u2581set": 326, "\u2581If": 327, "ah": 328, "\u2581could": 329, "be": 330, "\u2581very": 331, "\u2581made": 332, "\u2581first": 333, "\u2581want": 334, "ens": 335, "\u2581V": 336, "\u2581way": 337, "T": 338, "\u2581But": 339, "\u2581two": 340, "2": 341, "\u2581bliver": 342, "\u25811.": 343, "\u2581To": 344, "\u2581see": 345, "na": 346, "\u2581uden": 347, "\u2581W": 348, "\u2581think": 349, "\u2581So": 350, "\u2581got": 351, "\u2581blevet": 352, "\u2581years": 353, "\u2581m": 354, "\u2581back": 355, "\u2581does": 356, "\u2581g\u00f8r": 357, "D": 358, "\u2581products": 359, "\u2581hen": 360, "\u2581good": 361, "\u25817": 362, "\u2581forbindelse": 363, "\u2581countries": 364, "\u2581President": 365, "\u2581re": 366, "\u2581f\u00f8rste": 367, "\u2581anden": 368, "\u2581fil": 369, "\u2581e": 370, "\u2581Kommissionens": 371, "\u2581market": 372, "\u2581measures": 373, "us": 374, "\u2581R\u00e5dets": 375, "\u2581.": 376, "ic": 377, "\u2581nye": 378, "\u2581samt": 379, "\u2581k": 380, "p": 381, "\u258115": 382, "\u2581how": 383, "\u2581within": 384, "\u2581dag": 385, "\u2581used": 386, "\u2581point": 387, "\u2581State": 388, "\u2581mange": 389, "foranstaltninger": 390, "\u2581part": 391, "te": 392, "\u2581well": 393, "\u2581Er": 394, "\u2581real": 395, "ar": 396, "\u2581side": 397, "\u25818": 398, "\u2581Directive": 399, "\u2581because": 400, "\u2581Artikel": 401, "\u2581year": 402, "\u2581alt": 403, "\u2581national": 404, "\u2581J": 405, "\u2581...": 406, "\u2581They": 407, "\u2581form": 408, "\u2581samme": 409, "\u2581lige": 410, "N": 411, "\u2581report": 412, "EU": 413, "E": 414, "\u2581U": 415, "\u2581del": 416, "\u2581Denne": 417, "\u258112": 418, "\u2581direktiv": 419, "\u2581after": 420, "M": 421, "\u2581following": 422, "\u2581l": 423, "\u2581oplysninger": 424, "\u2581before": 425, "]": 426, "\u2581f\u00e6lles": 427, "om": 428, "\u2581she": 429, "\u2581being": 430, "\u2581day": 431, "\u258120": 432, "\u2581/": 433, "\u2581t": 434, "\u2581then": 435, "\u2581godt": 436, "\u2581am": 437, "\u2581hele": 438, "\u2581[": 439, "ers": 440, "\u2581said": 441, "\u2581same": 442, "\u2581hans": 443, "\u2581kommer": 444, "\u258118": 445, "\u2581derfor": 446, "\u2581policy": 447, "\u258130": 448, "\u2581hun": 449, "\u2581bare": 450, "\u2581nogle": 451, "I": 452, "amp": 453, "\u2581There": 454, "F": 455, "\u2581order": 456, "\u2581case": 457, "\u2581say": 458, "\u2581tilbage": 459, "L": 460, "\u2581v\u00e6ret": 461, "\u2581hensyn": 462, "\u2581R\u00e5det": 463, "\u2581st\u00f8tte": 464, "\u2581nogen": 465, "\u2581S\u00e5": 466, "\u2581file": 467, "\u2581even": 468, "\u2581u": 469, "\u2581Ye": 470, "\u2581Committee": 471, "\u2581sammen": 472, "P": 473, "\u2581most": 474, "se": 475, "\u2581Nej": 476, "\u2581Dette": 477, "\u2581As": 478, "an": 479, "\u2581number": 480, "\u2581through": 481, "EEC": 482, "\u2581henhold": 483, "\u2581c": 484, "\u2581many": 485, "\u2581social": 486, "ry": 487, "\u2581Re": 488, "overensstemmelse": 489, "\u2581going": 490, "\u2581particular": 491, "\u2581f\u00f8lgende": 492, "\u2581help": 493, "\u2581come": 494, "\u2581medlemsstaterne": 495, "\u25819": 496, "\u2581giver": 497, "\u2581brug": 498, "\u2581skulle": 499, "ter": 500, "\u2581vedr\u00f8rende": 501, "the": 502, "\u2581tid": 503, "ning": 504, "va": 505, "\u2581Europe": 506, "\u2581andet": 507, "\u2581All": 508, "\u2581How": 509, "\u2581P\u00e5": 510, "\u2581each": 511, "gon": 512, "at": 513, "\u2581accordance": 514, "um": 515, "th": 516, "\u2581ingen": 517, "\u2581situation": 518, "\u2581let": 519, "\u2581Annex": 520, "\u2581o": 521, "\u2581formand": 522, "\u2581d": 523, "\u2581g\u00e5r": 524, "3": 525, "\u2581tage": 526, "\u2581Da": 527, "E\u00d8F": 528, "\u2581f\u00e5r": 529, "\u2581person": 530, "lig": 531, "\u2581forskellige": 532, "op": 533, "to": 534, "W": 535, "\u2581far": 536, "\u2581aid": 537, "\u2581anvendelse": 538, "\u2581forslag": 539, ",\"": 540, "\u2581regard": 541, "\u2581world": 542, "\u258111": 543, "\u2581per": 544, "\u2581without": 545, "\u258119": 546, "\u2581store": 547, "og": 548, "\u2581life": 549, "\u2581own": 550, "\u2581Med": 551, "\u2581sagde": 552, "ation": 553, "\u2581beslutning": 554, "\u2581flere": 555, "\u2581punkt": 556, "\u2581provided": 557, "\u2581last": 558, "\u2581grund": 559, "\u2581m\u00e5de": 560, "\u2581place": 561, "R": 562, "up": 563, "\u2581much": 564, "\u2581Decision": 565, "\u2581Se": 566, "v": 567, "ud": 568, "\u2581hver": 569, "\u2581Well": 570, "\u2581h": 571, "\u2581support": 572, "blik": 573, "\u2581sp\u00f8rgsm\u00e5l": 574, "\u2581certain": 575, "\u2581EF": 576, "\u2581gang": 577, "\u2581kom": 578, "\u2581arbejde": 579, "\u2581problem": 580, "\u2581financial": 581, "el": 582, "\u2581europ\u00e6iske": 583, "\u2581too": 584, "\u2581basis": 585, "\u2581At": 586, "4": 587, "\u2581Do": 588, "ste": 589, "G": 590, "der": 591, "\u2581public": 592, "\u2581f\u00f8r": 593, "\u2581s\u00e5ledes": 594, "\u2581development": 595, "\u2581against": 596, "ow": 597, "\u258114": 598, "V": 599, "\u2581Com": 600, "\u2581sige": 601, "\u2581_": 602, "ede": 603, "\u2581important": 604, "hed": 605, "\u2581means": 606, "\u2581ret": 607, "\u2581Jesus": 608, "\u2581Je": 609, "\u2581transport": 610, "\u2581period": 611, "\u2581helt": 612, "\u2581THE": 613, "u": 614, "\u25812,": 615, "\u2581gerne": 616, "\u2581Be": 617, "\u2581both": 618, "1": 619, "est": 620, "for": 621, "\u2581referred": 622, "\u258116": 623, "ej": 624, "\u2581Har": 625, "\u2581economic": 626, "\u2581tre": 627, "sk": 628, "\u2581gennem": 629, "lige": 630, "\u2581fordi": 631, "\u2581siden": 632, "as": 633, "\u2581udvikling": 634, "\u2581long": 635, "\u2581conditions": 636, "\u2581She": 637, "it": 638, "\u2581On": 639, "\u2581Treaty": 640, "\u2581II": 641, "\u2581application": 642, "\u2581tilf\u00e6lde": 643, "\u2581un": 644, "\u2581love": 645, "\u2581taken": 646, "\u2581view": 647, "ol": 648, "\u2581still": 649, "\u2581necessary": 650, "\u2581jer": 651, "\u258117": 652, "\u2581g\u00e5": 653, "\u2581lande": 654, "\u2581An": 655, "\u2581software": 656, "\u2581level": 657, "\u258113": 658, "\u2581type": 659, "\u2581therefore": 660, "am": 661, "\u2581pr": 662, "\u2581muligt": 663, "\u2581land": 664, "ok": 665, "\u2581finde": 666, "\u2581stor": 667, "\u2581sikre": 668, "\u2581common": 669, "w": 670, "\u2581three": 671, "\u2581s\u00e5dan": 672, "\u25811,": 673, "\u2581sted": 674, "\u2581budget": 675, "\u2581possible": 676, "\u2581visse": 677, "\u2581siger": 678, "\u2581Hun": 679, "\u2581bilag": 680, "\u2581find": 681, "\u2581hos": 682, "\u2581something": 683, "\u2581hr": 684, "\u2581Til": 685, "\u2581dine": 686, "_": 687, "\u2581ser": 688, "\u25812.": 689, "ere": 690, "\u2581Go": 691, "ist": 692, "\u2581plan": 693, "\u2581dit": 694, "ck": 695, "me": 696, "Parlamentets": 697, "\u2581off": 698, "\u2581free": 699, "\u2581rules": 700, "\u2581dog": 701, "\u2581available": 702, "\u2581Gud": 703, "\u2581product": 704, "\u2581komme": 705, "K": 706, "j": 707, "\u2581p\u00e5g\u00e6ldende": 708, "\u2581tale": 709, "\u2581including": 710, "ad": 711, "\u2581anvendes": 712, "\u2581during": 713, "\u2022": 714, "\u2581service": 715, "\u2581frem": 716, "\u2581afg\u00f8relse": 717, "able": 718, "\u2581May": 719, "\u2581services": 720, "\u2581tror": 721, "\u2581Som": 722, "\u2581hvordan": 723, "\u2581Hr": 724, "is": 725, "\u2581hende": 726, "\u2581area": 727, "uck": 728, "\u2581country": 729, "ene": 730, "\u2581nationale": 731, "\u2581ny": 732, "\u258125": 733, "\u2581nok": 734, "\u2581forhold": 735, "\u2581put": 736, "\u2581tell": 737, "\u2581different": 738, "\u2581stadig": 739, "\u2581tager": 740, "\u2581high": 741, "\u2581authorities": 742, "\u2581procedure": 743, "\u2581co": 744, "\u2581given": 745, "\u2581question": 746, "ment": 747, "\u2581(1)": 748, "\u2581sit": 749, "\u2581EUR": 750, "\u2581great": 751, "\u2581Kom": 752, "\u2581Hvor": 753, "ir": 754, "\u2581little": 755, "\u2581human": 756, "ie": 757, "\u2581igen": 758, "\u2581law": 759, "\u2581mener": 760, "ant": 761, "\u2581account": 762, "\u2581N\u00e5r": 763, "\u2581finder": 764, "\u2581ned": 765, "\u258124": 766, "ner": 767, "\u2581endnu": 768, "\u2581concerned": 769, "\u2581every": 770, "\u2581ensure": 771, "\u2581My": 772, "\u2581produkter": 773, "\u2581Ved": 774, "\u00e5": 775, "\u2581OJ": 776, "x": 777, "\u2581liv": 778, "\u2581Al": 779, "\u2581mennesker": 780, "ke": 781, "\u2581decision": 782, "ies": 783, "\u2581non": 784, "\u2581million": 785, "\u258121": 786, "\u2581name": 787, "ik": 788, "eks": 789, "\u2581look": 790, "\u2581\u00f8nsker": 791, "man": 792, "\u2581international": 793, "\u2581why": 794, "\u2581third": 795, "\u2581F\u00e6llesskabet": 796, "di": 797, "\u2581When": 798, "\u2581Hvordan": 799, "\u2581Jeho": 800, "\u2581allerede": 801, "hov": 802, "\u2581again": 803, "\u2581sidste": 804, "\u2581verden": 805, "\u2581Parlamentet": 806, "\u2581hj\u00e6lp": 807, "nd": 808, "\u2581provisions": 809, "\u2581mean": 810, "\u2581Hvorfor": 811, "\u2581Why": 812, "\u2581fact": 813, "ge": 814, "\u2581mine": 815, "\u2581things": 816, "\u2581lidt": 817, "\u2581\u00f8konomiske": 818, "\u2581never": 819, "\u2581100": 820, "\u2581Man": 821, "\u2581omr\u00e5de": 822, "\u2581already": 823, "ler": 824, "\u2581Yes": 825, "\u2581another": 826, "\u2581course": 827, "\u2581control": 828, "\u2581cooperation": 829, "\u2581programme": 830, "\u2581paragraph": 831, "\u2581general": 832, "nes": 833, "\u2581whether": 834, "\u2581Jo": 835, "\u2581December": 836, "\u2581OF": 837, "\u2581ang\u00e5r": 838, "\u2581since": 839, "ig": 840, "\u2581mit": 841, "\u2581proposal": 842, "\u2581Ro": 843, "O": 844, "\u2581hvilket": 845, "\u2581Where": 846, "\u2581Her": 847, "\u258122": 848, "\u2581based": 849, "\u2581respect": 850, "\u2581around": 851, "\u258150": 852, "and": 853, "\u2581program": 854, "\u2581subject": 855, "\u2581action": 856, "\u2581Lad": 857, "\u2581computer": 858, "\u2581found": 859, "ach": 860, "\u2581sine": 861, "\u2581production": 862, "\u2581adopted": 863, "\u2581rights": 864, "\u2581special": 865, "\u2581position": 866, "\u2581force": 867, "\u2581ting": 868, "J": 869, "\u2581al": 870, "\u2581december": 871, "\u25813,": 872, "\u2581believe": 873, "by": 874, "\u2581samarbejde": 875, "\u25813.": 876, "\u2581price": 877, "\u2581Let": 878, "\u2581bedre": 879, "\u2581trade": 880, "\u2581mg": 881, "\u2581protection": 882, "\u2581second": 883, "\u2581provide": 884, "\u2581working": 885, "\u2581doing": 886, "\u2581Bar": 887, "\u2581mindre": 888, "\u2581(2)": 889, "\u2581relevant": 890, "\u2581might": 891, "\u2581money": 892, "\u2581grundlag": 893, "men": 894, "\u2581better": 895, "\u2581aldrig": 896, "\u2581However": 897, "\u2581god": 898, "ian": 899, "\u2581fik": 900, "\u2581St": 901, "gt": 902, "\u2581home": 903, "\u2581specific": 904, "\u25814.": 905, "\u2581Co": 906, "\u2581Is": 907, "\u25810": 908, "\u2581s\u00e6rlig": 909, "\u2581bestemmelser": 910, "\u2581r\u00e6kke": 911, "\u2581New": 912, "ex": 913, "im": 914, "\u2581days": 915, "ion": 916, "\u2581concerning": 917, "00": 918, "\u2581cannot": 919, "\u2581sikkerhed": 920, "ret": 921, "\u2581Agreement": 922, "\u2581Now": 923, "il": 924, "\u2581medlemsstat": 925, "\u2581date": 926, "\u2581stand": 927, "\u2581tro": 928, "\u2581mand": 929, "\u2581thing": 930, "\u2581g\u00e6lder": 931, "\u2581open": 932, "\u2581folk": 933, "\u2581less": 934, "\u2581United": 935, "z": 936, "\u2581Et": 937, "\u2581altid": 938, "\u2581hj\u00e6lpe": 939, "\u2581herunder": 940, "\u2581further": 941, "\u2581kontrol": 942, "ur": 943, "U": 944, "\u2581security": 945, "\u2581night": 946, "\u2581Efter": 947, "\u2581medlemsstater": 948, "\u2581virksomheder": 949, "\u2581best": 950, "den": 951, "\u2581least": 952, "ay": 953, "\u2581while": 954, "\u2581appropriate": 955, "\u2581able": 956, "ary": 957, "\u2581fast": 958, "id": 959, "\u2581Court": 960, "\u2581today": 961, "\u2581areas": 962, "\u2581r": 963, "\u2581st\u00f8rre": 964, "\u2581political": 965, "ten": 966, "\u2581b\u00e5de": 967, "ness": 968, "\u2581henvisning": 969, "\u2581Di": 970, "\u2581agreement": 971, "\u2581mest": 972, "\u2581change": 973, "\u2581apply": 974, "\u2581kind": 975, "\u2581pi": 976, "\u2581varer": 977, "ton": 978, "\u2581mulighed": 979, "EN": 980, "\u2581v": 981, "ker": 982, "\u2581told": 983, "\u2581gjort": 984, "ia": 985, "\u2581activities": 986, "\u2581future": 987, "\u2581*": 988, "\u2581jo": 989, "\u2581energy": 990, "\u2581Nu": 991, "\u2581hand": 992, "\u2581training": 993, "\u2581f\u00f8lge": 994, "\u2581call": 995, "\u2581requirements": 996, "\u2581con": 997, "\u2581using": 998, "\u2581having": 999, "\u2581process": 1000, "\u2581myndigheder": 1001, "\u2581Thank": 1002, "\u2581n\u00f8dvendigt": 1003, "\u2581m\u00e5l": 1004, "\u2581ord": 1005, "\u2581water": 1006, "\u2581tidligere": 1007, "\u2581health": 1008, "\u2581always": 1009, "guy": 1010, "The": 1011, "som": 1012, "\u2581marked": 1013, "\u2581Don": 1014, "ny": 1015, "0": 1016, "\u2581value": 1017, "com": 1018, "\u2581Wi": 1019, "ver": 1020, "\u2581done": 1021, "\u2581pro": 1022, "\u258123": 1023, "\u2581With": 1024, "ible": 1025, "\u2581ligger": 1026, "\u2581Om": 1027, "\u2581Ikke": 1028, "\u2581power": 1029, "\u2581together": 1030, "til": 1031, "\u2581fire": 1032, "\u2581Hotel": 1033, "\u2581light": 1034, "\u2581whole": 1035, "\u2581gjorde": 1036, "\u258131": 1037, "\u2581total": 1038, "age": 1039, "\u2581ex": 1040, "\u2581kl": 1041, "\u2581Your": 1042, "\u2581job": 1043, "\u00e6": 1044, "\u2581par": 1045, "\u2581present": 1046, "\u2581sure": 1047, "\u2581vidt": 1048, "gen": 1049, "\u2581These": 1050, "\u2581X": 1051, "\u2581via": 1052, "end": 1053, "\u2581children": 1054, "\u2581industry": 1055, "\u2581online": 1056, "\u2581w": 1057, "\u2581bruge": 1058, "\u2581kort": 1059, "\u2581ad": 1060, "yl": 1061, "\u2581group": 1062, "\u2581example": 1063, "\u2581problemer": 1064, "\u2581litra": 1065, "\u2581until": 1066, "co": 1067, "\u2581blot": 1068, "\u2581pre": 1069, "\u2581spil": 1070, "lo": 1071, "ende": 1072, "\u2581Min": 1073, "\u2581omr\u00e5der": 1074, "\u2581Not": 1075, "\u2581ECU": 1076, "\u2581sector": 1077, "\u2581body": 1078, "\u2581away": 1079, "\u2581findes": 1080, "ta": 1081, "\u258128": 1082, "\u2581matter": 1083, "\u2581+": 1084, "\u2581next": 1085, "\u2581Having": 1086, "X": 1087, "\u2581business": 1088, "\u2581risk": 1089, "\u2581family": 1090, "\u2581June": 1091, "\u2581is\u00e6r": 1092, "\u2581access": 1093, "\u2581st\u00e5r": 1094, "\u2581full": 1095, "\u2581opinion": 1096, "ch": 1097, "mus": 1098, "ligt": 1099, "\u2581small": 1100, "\u2581Kan": 1101, "\u2581fastsat": 1102, "\u2581test": 1103, "\u2581ca": 1104, "\u2581amount": 1105, "\u2581Af": 1106, "\u2581legal": 1107, "\u2581problems": 1108, "\u2581Y": 1109, "\u2581M\u00e5": 1110, "\u2581import": 1111, "\u2581start": 1112, "Y": 1113, "\u2581research": 1114, "\u2581indeholder": 1115, "\u2581direkte": 1116, "\u2581di": 1117, "\u2581Win": 1118, "\u2581pa": 1119, "\u2581yderligere": 1120, "\u2581mm": 1121, "\u2581management": 1122, "\u2581klar": 1123, "\u2581keep": 1124, "\u2581adgang": 1125, "un": 1126, "\u2581Alle": 1127, "\u2581b\u00f8rn": 1128, "\u2581taking": 1129, "\u2581months": 1130, "\u2581juni": 1131, "\u2581FOR": 1132, "\u2581kraft": 1133, "\u2581applicable": 1134, "\u2581traktaten": 1135, "ling": 1136, "\u2581n": 1137, "ind": 1138, "\u2581above": 1139, "\u2581vide": 1140, "\u00c3": 1141, "\u2581bedste": 1142, "\u2581Mar": 1143, "\u00f8r": 1144, "\u2581quality": 1145, "\u2581implementation": 1146, "\u2581old": 1147, "\u2581viser": 1148, "\u2581Just": 1149, "\u2581few": 1150, "one": 1151, "row": 1152, "\u2581clear": 1153, "\u2581gav": 1154, "\u258127": 1155, "bo": 1156, "ering": 1157, "\u2581gen": 1158, "\u2581By": 1159, "\u2581vand": 1160, "\u2581Disse": 1161, "\u2581behandling": 1162, "\u2581f\u00f8rst": 1163, "\u2581result": 1164, "\u2581hope": 1165, "\u2581bl": 1166, "\u2581standard": 1167, "ish": 1168, "\u2581led": 1169, "\u2581omkring": 1170, "\u2581reference": 1171, "\u2581offentlige": 1172, "\u2581Dr": 1173, "go": 1174, "\u2581cases": 1175, "lse": 1176, "ng": 1177, "\u2581safety": 1178, "\u2581x": 1179, "\u2581costs": 1180, "\u2581dage": 1181, "\u2581lille": 1182, "ity": 1183, "land": 1184, "ty": 1185, "\u2581amended": 1186, "\u2581\u00e6ndring": 1187, "\u2581Deres": 1188, "\u2581finansielle": 1189, "\u2581private": 1190, "\u2581interest": 1191, "\u258126": 1192, "\u2581Ud": 1193, "ate": 1194, "\u2581enhver": 1195, "\u2581food": 1196, "ak": 1197, "\u2581increase": 1198, "\u2581Can": 1199, "\u2581Republic": 1200, "\u2581become": 1201, "\u2581mindst": 1202, "\u2581effect": 1203, "\u2581krav": 1204, "\u2581car": 1205, "\u2581laid": 1206, "\u2581Dem": 1207, "Parlamentet": 1208, "\u2581gange": 1209, "\u2581issue": 1210, "\u2581Guds": 1211, "\u2581virkelig": 1212, "\u2581Vil": 1213, "\u2581women": 1214, "\u2581rate": 1215, "\u2581called": 1216, "\u2581dens": 1217, "\u2581regional": 1218, "\u2581ever": 1219, "\u2581F\u00e6llesskabets": 1220, "son": 1221, "\u2581required": 1222, "\u2581Under": 1223, "\u2581One": 1224, "ick": 1225, "\u2581vigtigt": 1226, "\u2581mor": 1227, "ine": 1228, "\u2581January": 1229, "\u2581technical": 1230, "ger": 1231, "ive": 1232, "\u2581bad": 1233, "\u2581company": 1234, "\u2581personer": 1235, "\u2581hotel": 1236, "\u2581km": 1237, "\u2581EFT": 1238, "\u258140": 1239, "da": 1240, "\u2581fremme": 1241, "\u2581n\u00f8dvendige": 1242, "\u2581vej": 1243, "\u2581goods": 1244, "\u2581Le": 1245, "\u2581July": 1246, "\u2581established": 1247, "\u2581anti": 1248, "\u2581III": 1249, "\u2581vel": 1250, "\u2581La": 1251, "\u2581thought": 1252, "\u2581Social": 1253, "\u2581lovgivning": 1254, "\u2581read": 1255, "\u2581h\u00f8j": 1256, "\u2581treatment": 1257, "ce": 1258, "\u2581lav": 1259, "\u2581feel": 1260, "af": 1261, "\u258129": 1262, "\u2581holde": 1263, "\u2581single": 1264, "\u25814,": 1265, "\u2581Tak": 1266, "\u2581Who": 1267, "mm": 1268, "iske": 1269, "\u2581s\u00e6rlige": 1270, "\u2581yet": 1271, "\u2581bring": 1272, "\u2581design": 1273, "ibel": 1274, "\u2581sociale": 1275, "\u2581penge": 1276, "dy": 1277, "ns": 1278, "\u2581air": 1279, "Q": 1280, "\u2581main": 1281, "\u2581Look": 1282, "\u2581fejl": 1283, "no": 1284, "\u2581hvilken": 1285, "\u2581givet": 1286, "over": 1287, "\u2581terms": 1288, "\u2581f\u00e6llesskabs": 1289, "\u2581considered": 1290, "\u2581making": 1291, "\u2581show": 1292, "\u2581januar": 1293, "\u2581afsnit": 1294, "\u2581legislation": 1295, "\u2581tog": 1296, "ite": 1297, "\u25815.": 1298, "\u2581Pro": 1299, "\u2581ask": 1300, "\u2581large": 1301, "\u2581m\u00e5neder": 1302, "\u2581Op": 1303, "\u2581ma": 1304, "\u2581juli": 1305, "ra": 1306, "\u2581Christian": 1307, "\u2581persons": 1308, "\u2581vist": 1309, "\u2581field": 1310, "\u2581results": 1311, "ting": 1312, "\u2581anything": 1313, "BAR": 1314, "OJ": 1315, "\u2581Are": 1316, "ets": 1317, "\u2581sk": 1318, "\u2581l\u00e6ngere": 1319, "\u2581local": 1320, "\u2581hvert": 1321, "\u2581Car": 1322, "\u2581(3)": 1323, "\u2581imod": 1324, "):": 1325, "\u2581Mo": 1326, "\u2581agricultural": 1327, "\u2581ja": 1328, "\u2581imidlertid": 1329, "\u2581needs": 1330, "\u2581include": 1331, "\u2581Derfor": 1332, "\u2581navn": 1333, "\u2581sp": 1334, "\u2581mio": 1335, "\u2581left": 1336, "\u2581talk": 1337, "5": 1338, "\u2581betyder": 1339, "\u2581came": 1340, "ang": 1341, "\u2581Ex": 1342, "\u2581indtil": 1343, "\u2581samlede": 1344, "\u2581\u00e9n": 1345, "\u2581bag": 1346, "\u2581betydning": 1347, "\u2581please": 1348, "\u2581times": 1349, "\u2581hurtigt": 1350, "\u2581sker": 1351, "\u2581institutions": 1352, "\u2581aftale": 1353, "\u2581list": 1354, "os": 1355, "mail": 1356, "\u2581administrative": 1357, "\u2581March": 1358, "\u2581ago": 1359, "\u2581bruger": 1360, "\u2581uddannelse": 1361, "\u2581close": 1362, "em": 1363, "vis": 1364, "of": 1365, "\u2581sag": 1366, "\u2581authority": 1367, "\u2581politiske": 1368, "\u2581however": 1369, "\u2581members": 1370, "ro": 1371, "less": 1372, "\u2581behov": 1373, "\u2581Kingdom": 1374, "\u2581s\u00e5danne": 1375, "\u2581final": 1376, "\u2581internationale": 1377, "\u2581gode": 1378, "ul": 1379, "\u2581resources": 1380, "\u2581resolution": 1381, "\u2581cm": 1382, "\u2581systems": 1383, "ren": 1384, "\u2581Nog": 1385, "\u2581files": 1386, "\u2581taget": 1387, "ster": 1388, "\u2581Bull": 1389, "\u2581play": 1390, "\u2581euro": 1391, "\u258160": 1392, "\u2581dets": 1393, "\u2581once": 1394, "\u2581house": 1395, "\u2581EC": 1396, "isk": 1397, "\u2581various": 1398, "\u2581lot": 1399, "\u2581sm\u00e5": 1400, "\u2581navnlig": 1401, "\u2581care": 1402, "\u2581prices": 1403, "\u2581thereof": 1404, "\u2581hjem": 1405, "\u2581pris": 1406, "\u2581energi": 1407, "\u2581Get": 1408, "\u2581faktisk": 1409, "\u2581relating": 1410, "\u2581form\u00e5l": 1411, "\u2581omfatter": 1412, "\u2581line": 1413, "\u2581upon": 1414, "\u2581state": 1415, "\u2581dis": 1416, "\u2581klart": 1417, "rne": 1418, "\u2581bo": 1419, "\u2581gik": 1420, "\u2581framework": 1421, "\u2581Andre": 1422, "\u2581due": 1423, "\u2581meeting": 1424, "\u2581V\u00e6r": 1425, "\u2581serious": 1426, "\u2581idet": 1427, "\u2581project": 1428, "\u2581Paul": 1429, "\u2581st": 1430, "\u2581young": 1431, "\u2581ro": 1432, "\u2581live": 1433, "\u2581October": 1434, "\u2581kg": 1435, "ous": 1436, "\u2581understand": 1437, "\u2581nothing": 1438, "\u25812004": 1439, "\u2581Israel": 1440, "\u2581environment": 1441, "\u2581Z": 1442, "\u2581konkurrence": 1443, "\u2581\u00e6ndringer": 1444, "\u2581others": 1445, "\u2581individual": 1446, "let": 1447, "\u2581Su": 1448, "\u2581Of": 1449, "\u2581USA": 1450, "\u2581lov": 1451, "\u2581game": 1452, "\u2581sorry": 1453, "\u2581everything": 1454, "\u2581regler": 1455, "\u2581enkelt": 1456, "\u25816.": 1457, "\u2581General": 1458, "\u2581Then": 1459, "\u2581te": 1460, "\u2581request": 1461, "\u2581baseret": 1462, "\u2581eneste": 1463, "\u2581video": 1464, "\u2581hard": 1465, "\u2581Unions": 1466, "ca": 1467, "\u2581hvilke": 1468, "DE": 1469, "\u2581sound": 1470, "\u2581Mac": 1471, "\u2581sent": 1472, "\u2581kon": 1473, "bar": 1474, "\u2581House": 1475, "ard": 1476, "\u2581blood": 1477, "\u2581Sk": 1478, "\u2581kvinder": 1479, "\u2581projects": 1480, "\u2581took": 1481, "\u2581establishing": 1482, "\u2581patients": 1483, "7": 1484, "\u2581marts": 1485, "\u2581See": 1486, "\u2581mens": 1487, "\u2581v\u00e6k": 1488, "\u2581000": 1489, "\u2581Sa": 1490, "\u2581relevante": 1491, "else": 1492, "\u2581tr\u00e6": 1493, "\u2581oktober": 1494, "\u2581politik": 1495, "ED": 1496, "\u2581points": 1497, "\u2581included": 1498, "\u2581Hvem": 1499, "\u2581maj": 1500, "\u2581debate": 1501, "ha": 1502, "\u2581bet\u00e6nkning": 1503, "\u2581stedet": 1504, "\u2581employment": 1505, "tel": 1506, "hen": 1507, "\u2581either": 1508, "\u2581Other": 1509, "\u2581four": 1510, "\u2581version": 1511, "\u2581companies": 1512, "\u2581lang": 1513, "\u2581tax": 1514, "\u2581la": 1515, "\u2581f\u00e5et": 1516, "\u2581Please": 1517, "\u2581Some": 1518, "\u2581Christ": 1519, "pe": 1520, "\u2581art": 1521, "\u25812000": 1522, "\u2581particularly": 1523, "\u2581nemlig": 1524, "\u2581Mrs": 1525, "\u2581effects": 1526, "ja": 1527, "\u2581France": 1528, "ino": 1529, "\u2581hold": 1530, "v\u00e6relse": 1531, "\u2581competent": 1532, "\u2581Group": 1533, "\u2581wrong": 1534, "ful": 1535, "eret": 1536, "\u2581Window": 1537, "\u2581Hold": 1538, "\u00f8": 1539, "line": 1540, "\u2581inter": 1541, "\u2581\u00f8konomisk": 1542, "ier": 1543, "st": 1544, "\u2581gennemf\u00f8relse": 1545, "\u2581Ingen": 1546, "\u2581weight": 1547, "uk": 1548, "\u2581langt": 1549, "\u2581status": 1550, "ho": 1551, "\u2581stop": 1552, "skab": 1553, "ven": 1554, "\u2581beskyttelse": 1555, "eller": 1556, "\u2581Economic": 1557, "\u2581skabe": 1558, "\u2581m\u00f8de": 1559, "\u2581room": 1560, "\u2581heller": 1561, "\u2581n\u00e6vnte": 1562, "\u2581true": 1563, "\u2581former": 1564, "\u2581Ra": 1565, "bi": 1566, "\u2581held": 1567, "\u2581carried": 1568, "\u2581Denmark": 1569, "\u2581big": 1570, "\u2581meet": 1571, "\u2581purpose": 1572, "\u2581enough": 1573, "\u2581Gra": 1574, "lighed": 1575, "iv": 1576, "je": 1577, "\u2581grad": 1578, "ma": 1579, "ikke": 1580, "\u2581seen": 1581, "\u2581betingelser": 1582, "\u2581\u20ac": 1583, "\u2581programmes": 1584, "\u2581fortsat": 1585, "\u2581mind": 1586, "\u2581experience": 1587, "\u2581directly": 1588, "\u2581udtalelse": 1589, "\u2581gives": 1590, "net": 1591, "\u2581Or": 1592, "\u2581related": 1593, "\u2581coming": 1594, "\u2581bestemt": 1595, "\u2581words": 1596, "how": 1597, "\u25812006": 1598, "\u2581according": 1599, "\u2581November": 1600, "\u2581landbrugs": 1601, "\u2581deal": 1602, "\u2581current": 1603, "\u2581key": 1604, "\u2581videre": 1605, "\u2581eksempel": 1606, "\u2581unge": 1607, "\u2581egen": 1608, "\u00e6r": 1609, "\u2581Over": 1610, "\u2581region": 1611, "les": 1612, "\u2581among": 1613, "\u25812008": 1614, "skyld": 1615, "\u2581fine": 1616, "\u2581\u00e6ndringsforslag": 1617, "\u25812007": 1618, "\u2581Bank": 1619, "\u2581continue": 1620, "\u2581addition": 1621, "\u2581procedures": 1622, "\u2581reason": 1623, "\u2581sa": 1624, "ks": 1625, "\u2581John": 1626, "\u2581milj\u00f8": 1627, "\u2581bel\u00f8b": 1628, "\u25812009": 1629, "\u2581n\u00e6ste": 1630, "\u2581internal": 1631, "tis": 1632, "\u2581Del": 1633, "\u2581=": 1634, "\u2581pay": 1635, "\u2581fri": 1636, "\u2581check": 1637, "\u25812005": 1638, "\u2581taler": 1639, "ware": 1640, "\u2581Whereas": 1641, "\u2581ti": 1642, "\u2581gratis": 1643, "war": 1644, "ag": 1645, "\u2581regards": 1646, "\u2581indre": 1647, "30": 1648, "\u2581basic": 1649, "\u2581medlemmer": 1650, "\u2581competition": 1651, "tan": 1652, "\u2581ECB": 1653, "\u2581El": 1654, "\u2581Bo": 1655, "\u2581senere": 1656, "\u2581hoved": 1657, "\u2581additional": 1658, "\u2581five": 1659, "\u2581betragtning": 1660, "\u2581synes": 1661, "\u2581says": 1662, "\u2581Ch": 1663, "\u2581After": 1664, "\u2581virksomhed": 1665, "load": 1666, "\u2581aktiviteter": 1667, "\u2581content": 1668, "\u2581dele": 1669, "\u2581offer": 1670, "\u2581gas": 1671, "\u25812002": 1672, "\u2581parts": 1673, "\u2581government": 1674, "\u2581Good": 1675, "6": 1676, "\u2581el": 1677, "mo": 1678, "\u2581omhandlet": 1679, "\u2581head": 1680, "\u2581rolle": 1681, "\u2581natural": 1682, "\u2581l\u00e6nge": 1683, "\u2581november": 1684, "actually": 1685, "\u2581Articles": 1686, "\u2581equipment": 1687, "\u2581Journal": 1688, "ot": 1689, "\u2581parties": 1690, "old": 1691, "do": 1692, "\u2581heart": 1693, "ug": 1694, "\u2581vedtaget": 1695, "\u2581maximum": 1696, ");": 1697, "\u2581Gu": 1698, "\u2581unders\u00f8gelse": 1699, "\u2581bit": 1700, "room": 1701, "\u2581hvem": 1702, "\u258190": 1703, "\u2581mal": 1704, "\u2581bil": 1705, "mel": 1706, "\u2581top": 1707, "sen": 1708, "\u2581covered": 1709, "\u2581leave": 1710, "\u2581September": 1711, "\u2581Selv": 1712, "\u2581vis": 1713, "\u2581tidspunkt": 1714, "\u2581film": 1715, "\u2581\u00e6ndret": 1716, "\u2581positive": 1717, "\u2581central": 1718, "\u2581kompetente": 1719, "\u2581blandt": 1720, "\u2581jf": 1721, "\u2581imports": 1722, "\u2581Te": 1723, "mer": 1724, "\u2581April": 1725, "\u2581similar": 1726, "\u2581proposals": 1727, "\u2581role": 1728, "ut": 1729, "\u2581guarantee": 1730, "\u2581later": 1731, "\u25812003": 1732, "my": 1733, "\u2581ofte": 1734, "50": 1735, "\u2581organisation": 1736, "erede": 1737, "\u2581periode": 1738, "ps": 1739, "\u2581operation": 1740, "\u2581Sam": 1741, "\u2581below": 1742, "\u2581known": 1743, "\u2581tekniske": 1744, "\u00e5r": 1745, "\u2581gruppe": 1746, "\u2581makes": 1747, "\u2581administration": 1748, "\u2581issues": 1749, "\u2581hours": 1750, "\u2581morgen": 1751, "\u2581fald": 1752, "\u2581dyr": 1753, "per": 1754, "\u2581capital": 1755, "Vi": 1756, "\u2581Sp": 1757, "\u2581page": 1758, "\u2581valg": 1759, "\u2581F\u00e6llesskab": 1760, "ise": 1761, "\u2581US": 1762, "\u2581model": 1763, "10": 1764, "\u2581major": 1765, "\u2581cost": 1766, "\u2581ha": 1767, "\u2581several": 1768, "\u2581stort": 1769, "\u2581responsible": 1770, "\u2581vote": 1771, "\u2581minimum": 1772, "\u2581rest": 1773, "\u2581nuv\u00e6rende": 1774, "\u2581wish": 1775, "ES": 1776, "ber": 1777, "\u2581holder": 1778, "out": 1779, "\u2581behalf": 1780, "ti": 1781, "\u258110.": 1782, "\u2581fundet": 1783, "\u2581often": 1784, "\u2581hendes": 1785, "\u2581progress": 1786, "ap": 1787, "\u2581antal": 1788, "\u2581Germany": 1789, "LL": 1790, "ER": 1791, "\u2581Fra": 1792, "\u2581granted": 1793, "\u2581study": 1794, "\u2581provides": 1795, "\u2581hvorfor": 1796, "ice": 1797, "\u2581lave": 1798, "\u2581midler": 1799, "\u2581europ\u00e6isk": 1800, "20": 1801, "\u2581regions": 1802, "\u2581h\u00f8jere": 1803, "\u2581principle": 1804, "\u2581lys": 1805, "\u2581environmental": 1806, "\u2581sagt": 1807, "\u2581Con": 1808, "\u25817.": 1809, "\u2581rettigheder": 1810, "\u2581patienter": 1811, "\u2581purposes": 1812, "\u2581went": 1813, "8": 1814, "\u2581Tro": 1815, "wer": 1816, "\u2581balance": 1817, "\u2581drive": 1818, "ey": 1819, "\u2581hear": 1820, "\u2581Here": 1821, "\u2581post": 1822, "ator": 1823, "\u2581involved": 1824, "\u2581text": 1825, "\u2581fandt": 1826, "\u2581AND": 1827, "\u2581effective": 1828, "\u2581Ca": 1829, "\u2581lyd": 1830, "\u2581itself": 1831, "ix": 1832, "\u2581death": 1833, "\u2581fem": 1834, "\u2581education": 1835, "\u2581y": 1836, "\u2581stay": 1837, "\u2581met": 1838, "\u2581search": 1839, "ou": 1840, "\u2581nyt": 1841, "\u2581received": 1842, "au": 1843, "\u2581kid": 1844, "\u2581won": 1845, "\u2581samtidig": 1846, "\u2581More": 1847, "\u2581tredje": 1848, "ace": 1849, "\u25811999": 1850, "day": 1851, "\u2581questions": 1852, "ft": 1853, "\u2581ske": 1854, "\u2581Danmark": 1855, "\u2581krist": 1856, "book": 1857, "tro": 1858, "\u00e9": 1859, "\u2581udg\u00f8r": 1860, "\u2581lade": 1861, "\u2581Ind": 1862, "\u2581april": 1863, "\u2581\u00c5": 1864, "\u2581applied": 1865, "\u2581hjerte": 1866, "\u2581investment": 1867, "\u2581changes": 1868, "\u2581d\u00f8d": 1869, "\u258180": 1870, "\u2581workers": 1871, "\u2581material": 1872, "\u2581Did": 1873, "\u2581format": 1874, "ken": 1875, "\u2581forskning": 1876, "\u2581dagen": 1877, "ring": 1878, "\u2581towards": 1879, "\u2581f\u00f8lger": 1880, "\u2581average": 1881, "\u2581alene": 1882, "ze": 1883, "\u2581low": 1884, "\u2581v\u00e6rdi": 1885, "\u2581sikker": 1886, "\u2581looking": 1887, "ance": 1888, "\u2581Me": 1889, "\u2581amendments": 1890, "\u2581vegne": 1891, "\u2581pursuan": 1892, "\u2581holdning": 1893, "\u2581september": 1894, "\u2581February": 1895, "\u2581L\u00e6s": 1896, "\u2581rejse": 1897, "\u2581greater": 1898, "\u2581medlem": 1899, "\u2581regering": 1900, "\u2581try": 1901, "\u2581Lo": 1902, "\u2581levels": 1903, "\u2581short": 1904, "\u2581tiden": 1905, "\u2581Central": 1906, "\u2581decisions": 1907, "\u2581Ge": 1908, "\u2581forhandlinger": 1909, "\u2581produktion": 1910, "\u2581Home": 1911, "\u2581range": 1912, "\u2581personal": 1913, "\u2581Ar": 1914, "len": 1915, "\u2581indhold": 1916, "\u2581listen": 1917, "\u2581enter": 1918, "med": 1919, "king": 1920, "\u2581ven": 1921, "red": 1922, "\u2581TV": 1923, "\u2581intet": 1924, "\u2581\u00b0": 1925, "\u2581egne": 1926, "\u2581Official": 1927, "can": 1928, "19": 1929, "\u2581hinanden": 1930, "\u2581citizens": 1931, "\u2581begge": 1932, "\u2581event": 1933, "\u2581designed": 1934, "\u2581proposed": 1935, "\u2581wanted": 1936, "our": 1937, "\u2581produkt": 1938, "\u2581kr\u00e6ver": 1939, "\u2581standards": 1940, "\u2581son": 1941, "AL": 1942, "tal": 1943, "\u2581seneste": 1944, "\u2581g\u00e6ldende": 1945, "ium": 1946, "\u2581city": 1947, "\u2581n\u00e6sten": 1948, "\u2581gennemf\u00f8relsen": 1949, "\u2581longer": 1950, "\u2581tab": 1951, "\u2581Our": 1952, "all": 1953, "\u2581aften": 1954, "\u2581ligesom": 1955, "\u2581kender": 1956, "\u2581pr\u00f8ve": 1957, "\u2581dead": 1958, "\u2581m\u00e5tte": 1959, "\u2581easy": 1960, "\u2581policies": 1961, "\u2581increased": 1962, "\u2581arbejder": 1963, "\u2581familie": 1964, "\u2581sprog": 1965, "\u2581februar": 1966, "\u2581code": 1967, "\u2581v\u00e6lge": 1968, "\u2581From": 1969, "tter": 1970, "\u2581EUT": 1971, "\u2581n\u00f8dt": 1972, "Software": 1973, "\u2581Po": 1974, "\u2581groups": 1975, "ors": 1976, "\u2581animals": 1977, "\u25812001": 1978, "\u2581Tag": 1979, "\u2581stoffer": 1980, "\u2581idea": 1981, "\u2581move": 1982, "get": 1983, "\u25818.": 1984, "vi": 1985, "\u2581m\u00e6nd": 1986, "\u2581chance": 1987, "ved": 1988, "\u2581sikkert": 1989, "\u2581(\"": 1990, "\u2581agreements": 1991, "\u2581forward": 1992, "\u2581assessment": 1993, "\u2581assistance": 1994, "\u2581Free": 1995, "\u2581svar": 1996, "ans": 1997, "\u2581party": 1998, "\u2581net": 1999, "\u2581Commissioner": 2000, "\u2581integration": 2001, "\u2581Mor": 2002, "\u2581share": 2003, "\u2581Luxembourg": 2004, "\u2581allow": 2005, "vo": 2006, "\u2581kill": 2007, "\u2581run": 2008, "pt": 2009, "\u2581\u00e5nd": 2010, "mor": 2011, "\u2581especially": 2012, "type": 2013, "\u2581normal": 2014, "\u2581war": 2015, "\u2581contact": 2016, "\u2581review": 2017, "\u2581AF": 2018, "\u2581syn": 2019, "\u2581Un": 2020, "\u2581soon": 2021, "\u2581Ny": 2022, "\u2581added": 2023, "\u2581spiller": 2024, "uh": 2025, "\u2581ene": 2026, "\u2581sh": 2027, "\u2581OG": 2028, "we": 2029, "\u2581saying": 2030, "\u2581burde": 2031, "ley": 2032, "'.": 2033, "\u2581styrke": 2034, "\u2581outside": 2035, "con": 2036, "cy": 2037, "\u2581kvalitet": 2038, "\u2581David": 2039, "ure": 2040, "ek": 2041, "\u2581criteria": 2042, "\u2581garanti": 2043, "\u2581vor": 2044, "\u2581oprindelse": 2045, "\u2581enkelte": 2046, "\u2581Kun": 2047, "\u2581ml": 2048, "\u2581animal": 2049, "\u2581happened": 2050, "\u2581fleste": 2051, "\u2581nature": 2052, "\u2581school": 2053, "\u2581member": 2054, "\u2581father": 2055, "\u2581ansvar": 2056, "post": 2057, "val": 2058, "\u2581na": 2059, "\u2581Hans": 2060, "\u2581fasts\u00e6ttes": 2061, "\u2581living": 2062, "\u2581lokale": 2063, "\u2581tages": 2064, "\u2581\u00e6ndre": 2065, "\u2581spille": 2066, "\u2581Peter": 2067, "\u2581table": 2068, "lad": 2069, "\u2581bar": 2070, "\u2581\u00e5bne": 2071, "sel": 2072, "\u00f8v": 2073, "\u2581intended": 2074, "\u2581growth": 2075, "\u2581omfattet": 2076, "ppe": 2077, "\u2581active": 2078, "side": 2079, "\u2581earth": 2080, "\u2581Portugal": 2081, "\u2581leve": 2082, "\u2581van": 2083, "\u25812013": 2084, "\u2581Ph": 2085, "\u2581week": 2086, "\u2581haft": 2087, "\u2581waste": 2088, "use": 2089, "\u2581book": 2090, "ron": 2091, "\u2581objectives": 2092, "\u2581themselves": 2093, "\u2581approved": 2094, "\u2581thank": 2095, "For": 2096, "\u2581wait": 2097, "\u2581n\u00e5": 2098, "\u2581Any": 2099, "\u2581Euro": 2100, "kke": 2101, "\u2581site": 2102, "\u2581Forenede": 2103, "\u258115.": 2104, "\u2581st\u00f8rste": 2105, "\u2581submitted": 2106, "\u2581Air": 2107, "\u2581capacity": 2108, "io": 2109, "\u2581programmer": 2110, "\u2581face": 2111, "\u2581reports": 2112, "\u2581lead": 2113, "\u2581solution": 2114, "\u2581expenditure": 2115, "\u2581bank": 2116, "\u2581parter": 2117, "\u2581vigtigste": 2118, "quite": 2119, "\u25812010": 2120, "\u2581opn\u00e5": 2121, "sy": 2122, "\u2581h\u00e5ber": 2123, "Jeg": 2124, "\u2581French": 2125, "\u2581institution": 2126, "\u2581paid": 2127, "\u2581follow": 2128, "\u2581needed": 2129, "lu": 2130, "\u2581h\u00f8jt": 2131, "\u2581offers": 2132, "\u2581activity": 2133, "\u2581approach": 2134, "\u2581details": 2135, "ted": 2136, "po": 2137, "\u2581analysis": 2138, "\u2581games": 2139, "\u2581minutes": 2140, "\u2581brought": 2141, "\u2581web": 2142, "\u2581vare": 2143, "\u2581fru": 2144, "\u2581link": 2145, "Z": 2146, "\u2581jorden": 2147, "\u2581comes": 2148, "\u2581IV": 2149, "\u2581sort": 2150, "\u2581Tyskland": 2151, "\u2581World": 2152, "\u2581Udvalget": 2153, "\u2581existing": 2154, "\u2581indsats": 2155, "\u2581setting": 2156, "ki": 2157, "\u2581gamle": 2158, "\u2581rather": 2159, "\u2581act": 2160, "\u25812014": 2161, "\u2581though": 2162, "han": 2163, "\u2581benefit": 2164, "ism": 2165, "fri": 2166, "\u2581interesse": 2167, "\u2581l\u00e6re": 2168, "\u2581vise": 2169, "\u2581moment": 2170, "\u2581(4)": 2171, "\u2581endelig": 2172, "\u2581aftalen": 2173, "\u2581heard": 2174, "ux": 2175, "tisk": 2176, "\u2581trying": 2177, "')": 2178, "\u2581Ha": 2179, "ord": 2180, "\u2581sub": 2181, "\u2581lignende": 2182, "\u2581resultater": 2183, "\u2581gennemf\u00f8relses": 2184, "\u2581export": 2185, "\u25811992": 2186, "\u2581cover": 2187, "\u2581someone": 2188, "\u2581published": 2189, "\u2581directive": 2190, "\u2581fordel": 2191, "\u2581performance": 2192, "\u2581create": 2193, "\u2581hel": 2194, "\u2581entry": 2195, "\u2581higher": 2196, "\u2581talking": 2197, "\u2581h\u00f8re": 2198, "\u2581oprettelse": 2199, "\u2581udtryk": 2200, "\u2581civil": 2201, "\u2581bruges": 2202, "\u2581projekter": 2203, "\u2581Communities": 2204, "anna": 2205, "\u2581mother": 2206, "\u2581credit": 2207, "\u2581payment": 2208, "Det": 2209, "\u258192": 2210, "\u2581timer": 2211, "\u2581Fin": 2212, "\u2581udgifter": 2213, "\u2581Convention": 2214, "\u2581udvalg": 2215, "\u2581materials": 2216, "\u2581elsker": 2217, "\u2581else": 2218, "\u2581Danish": 2219, "\u2581billeder": 2220, "\u2581200": 2221, "\u2581tak": 2222, "\u258111.": 2223, "\u2581fat": 2224, "\u2581saw": 2225, "anden": 2226, "\u2581fishing": 2227, "\u2581Hvilke": 2228, "\u2581getting": 2229, "$": 2230, "\u2581half": 2231, "OK": 2232, "\u2581past": 2233, "\u2581instrument": 2234, "\u2581yourself": 2235, "\u2581v\u00e6gt": 2236, "\u2581lide": 2237, "her": 2238, "\u2581kommiss\u00e6r": 2239, "ri": 2240, "\u2581funds": 2241, "\u2581Because": 2242, "\u2581girl": 2243, "\u2581works": 2244, "\u2581amending": 2245, "Re": 2246, "\u2581receive": 2247, "\u2581fully": 2248, "18": 2249, "\u2581Brussels": 2250, "\u2581Bruxelles": 2251, "\u2581mening": 2252, "\u2581etc": 2253, "\u2581reasons": 2254, "\u2581muligheder": 2255, "\u2581turn": 2256, "\u2581asked": 2257, "\u2581customs": 2258, "\u2581equal": 2259, "\u2581virus": 2260, "he": 2261, "ung": 2262, "\u2581Ho": 2263, "\u2581relation": 2264, "\u2581exchange": 2265, "\u2581rates": 2266, "la": 2267, "\u25812012": 2268, "\u258112.": 2269, "\u2581previous": 2270, "\u2581replaced": 2271, "und": 2272, "\u2581undg\u00e5": 2273, "\u2581knowledge": 2274, "\u2581h\u00e5nd": 2275, "\u2581enten": 2276, "ever": 2277, "16": 2278, "under": 2279, "\u2581impact": 2280, "\u2581omhandlede": 2281, "\u2581direct": 2282, "\u2581industrial": 2283, "\u2581International": 2284, "\u2581thus": 2285, "top": 2286, "\u2581annual": 2287, "ga": 2288, "\u2581f\u00f8re": 2289, "\u2581arbejds": 2290, "\u2581importance": 2291, "\u2581blod": 2292, "\u2581ye": 2293, "\u25812016": 2294, "\u25812011": 2295, "\u2581Gen": 2296, "\u2581fuldt": 2297, "\u2581grundl\u00e6ggende": 2298, "\u2581Ti": 2299, "\u2581bidrag": 2300, "9": 2301, "\u2581duty": 2302, "\u2581office": 2303, "\u2581minutter": 2304, "\u2581attention": 2305, "\u2581measure": 2306, "res": 2307, "\u2581klare": 2308, "\u2581ligeledes": 2309, "\u25819.": 2310, "FR": 2311, "\u2581myndighed": 2312, "\u2581six": 2313, "\u2581Ma": 2314, "\u2581anvende": 2315, "ov": 2316, "\u2581transfer": 2317, "\u2581context": 2318, "\u2581address": 2319, "lser": 2320, "\u2581DE": 2321, "f\u00f8lge": 2322, "In": 2323, "min": 2324, "\u2581slags": 2325, "\u2581created": 2326, "ight": 2327, "\u2581operations": 2328, "\u2581Din": 2329, "\u2581Unionen": 2330, "\u2581arbejdet": 2331, "\u2581System": 2332, "\u2581age": 2333, "\u2581consider": 2334, "\u2581word": 2335, "\u2581fuld": 2336, "\u2581Pre": 2337, "\u2581staff": 2338, "\u2581essential": 2339, "\u2581defined": 2340, "cker": 2341, "\u2581joint": 2342, "\u2581glad": 2343, "\u2581choose": 2344, "*": 2345, "\u2581anvendelsen": 2346, "ni": 2347, "lay": 2348, "\u2581agree": 2349, "\u2581n\u00e6vnt": 2350, "\u2581Per": 2351, "\u2581oil": 2352, "\u2581improve": 2353, "\u2581significant": 2354, "\u2581senest": 2355, "mar": 2356, "\u2581tredjelande": 2357, "\u2581original": 2358, "\u2581global": 2359, "tr\u00e6der": 2360, "\u2581gift": 2361, "\u2581F\u00e6llesskaber": 2362, "\u2581reform": 2363, "\u2581heraf": 2364, "\u2581d\u00f8de": 2365, "gu": 2366, "od": 2367, "\u2581forbedre": 2368, "\u2581provision": 2369, "sky": 2370, "mon": 2371, "\u2581term": 2372, "\u2581values": 2373, "tet": 2374, "\u2581Data": 2375, "\u2581photo": 2376, "\u2581fly": 2377, "\u2581masse": 2378, "fa": 2379, "\u258116.": 2380, "\u2581Na": 2381, "\u2581EUROPEAN": 2382, "\u258145": 2383, "\u2581National": 2384, "\u2581follows": 2385, "\u2581millioner": 2386, "\u2581supply": 2387, "\u2581extension": 2388, "\u2581along": 2389, "\u2581paper": 2390, "\u2581child": 2391, "\u2581vurdering": 2392, "\u2581sagen": 2393, "art": 2394, "del": 2395, "\u2581rapport": 2396, "\u2581markets": 2397, "\u2581specified": 2398, "\u2581Pris": 2399, "\u2581lost": 2400, "\u2581Government": 2401, "term": 2402, "IT": 2403, "De": 2404, "\u2581meddelelse": 2405, "\u2581l\u00f8bet": 2406, "\u2581remember": 2407, "\u2581vigtige": 2408, "\u2581s\u00e5som": 2409, "\u2581network": 2410, "\u2581contribution": 2411, "\u2581plads": 2412, "\u2581priser": 2413, "\u2581risiko": 2414, "\u258131.": 2415, "\u2581technology": 2416, "\u00f8j": 2417, "\u2581First": 2418, "\u2581beh\u00f8ver": 2419, "80": 2420, "\u2581peace": 2421, "int": 2422, "\u2581principles": 2423, "\u2581tal": 2424, "\u2581mad": 2425, "\u2581Paris": 2426, "\u2581cause": 2427, "\u2581huske": 2428, "p\u00e5": 2429, "tra": 2430, "\u2581EEA": 2431, "fil": 2432, "ac": 2433, "\u2581alts\u00e5": 2434, "\u2581s\u00f8n": 2435, "sion": 2436, "see": 2437, "\u2581Alt": 2438, "\u2581responsibility": 2439, "\u2581fixed": 2440, "\u2581r\u00e5dighed": 2441, "\u258170": 2442, "\u2581bestemmelserne": 2443, "\u2581Kongerige": 2444, "\u2581official": 2445, "\u2581Medlemsstaterne": 2446, "\u2581friend": 2447, "\u2581listed": 2448, "\u2581decided": 2449, "navn": 2450, "traktaten": 2451, "ighed": 2452, "\u2581difficult": 2453, "\u2581dr": 2454, "\u2581\u00f8ge": 2455, "\u2581self": 2456, "\u258175": 2457, "40": 2458, "\u2581nej": 2459, "\u2581complete": 2460, "hu": 2461, "\u2581interests": 2462, "\u25812015": 2463, "\u2581udviklingen": 2464, "jo": 2465, "\u2581Tel": 2466, "\u2581music": 2467, "\u2581forpligtelser": 2468, "\u2581London": 2469, "\u2581gentle": 2470, "dom": 2471, "\u2581whose": 2472, "ina": 2473, "\u2581regarding": 2474, "form": 2475, "rd": 2476, "11": 2477, "\u2581cut": 2478, "\u2581gave": 2479, "\u258185": 2480, "\u2581vedr\u00f8rer": 2481, "way": 2482, "\u2581s\u00e6tte": 2483, "\u2581regulation": 2484, "\u2581containing": 2485, "\u2581rette": 2486, "\u2581menneske": 2487, "\u2581hus": 2488, "\u2581note": 2489, "\u2581documents": 2490, "\u2581po": 2491, "\u258135": 2492, "\u2581passende": 2493, "\u2581German": 2494, "lip": 2495, "body": 2496, "lot": 2497, "\u2581develop": 2498, "\u2581Frankrig": 2499, "\u2581Wo": 2500, "\u258114.": 2501, "\u25815,": 2502, "els": 2503, "produkter": 2504, "lin": 2505, "\u2581front": 2506, "\u2581stille": 2507, "\u2581niveau": 2508, "\u2581omfang": 2509, "\u2581potential": 2510, "illa": 2511, "ign": 2512, "\u2581Ba": 2513, "+": 2514, "ello": 2515, "ub": 2516, "\u2581handel": 2517, "\u258113.": 2518, "\u2581fyr": 2519, "EUT": 2520, "\u2581Internet": 2521, "\u2581War": 2522, "\u2581bodies": 2523, "\u2581instruments": 2524, "\u2581desuden": 2525, "rs": 2526, "\u2581accept": 2527, "14": 2528, "\u2581matters": 2529, "\u2581South": 2530, "\u2581omst\u00e6ndigheder": 2531, "ds": 2532, "77": 2533, "\u2581godkendelse": 2534, "\u2581answer": 2535, "\u2581alone": 2536, "\u2581apart": 2537, "\u2581drejer": 2538, "\u2581Ru": 2539, "\u2581snart": 2540, "\u2581document": 2541, "\u2581evidence": 2542, "\u2581besk\u00e6ftigelse": 2543, "\u2581Information": 2544, "\u2581watch": 2545, "\u2581Pe": 2546, "\u2581venner": 2547, "\u2581strong": 2548, "\u2581clearly": 2549, "\u2581opportunity": 2550, "\u2581lejlighed": 2551, "\u2581ready": 2552, "\u2581Fund": 2553, "adies": 2554, "li": 2555, "15": 2556, "\u2581favour": 2557, "\u2581month": 2558, "port": 2559, "\u2581vin": 2560, "\u2581\u00e5rs": 2561, "\u2581producers": 2562, "vel": 2563, "\u2581simply": 2564, "tic": 2565, "\u2581practice": 2566, "\u2581speak": 2567, "25": 2568, "\u2581troede": 2569, "\u2581Italy": 2570, "ook": 2571, "\u2581communication": 2572, "\u2581step": 2573, "\u2581Ireland": 2574, "\u2581politisk": 2575, "\u2581dose": 2576, "\u2581draft": 2577, "\u2581types": 2578, "\u2581Italien": 2579, "\u2581praksis": 2580, "ast": 2581, "\u2581studies": 2582, "\u2581building": 2583, "\u2581metal": 2584, "\u2581skade": 2585, "\u2581Pi": 2586, "\u2581relations": 2587, "\u2581mentioned": 2588, "\u2581finansiering": 2589, "\u2581udstyr": 2590, "\u2581derefter": 2591, "\u2581vehicle": 2592, "\u2581Mat": 2593, "\u2581rent": 2594, "\u2581Am": 2595, "\u2581size": 2596, "\u2581\u00f8jeblik": 2597, "\u2581[1],": 2598, "\u2581almindelige": 2599, "system": 2600, "\u2581arrangements": 2601, "\u2581t\u00e6t": 2602, "\u2581quickly": 2603, "\u2581Tidende": 2604, "\u2581takes": 2605, "des": 2606, "\u2581origin": 2607, "\u2581verdens": 2608, "ab": 2609, "\u2581users": 2610, "12": 2611, "CO": 2612, "ige": 2613, "\u2581virkning": 2614, "\u2581distribution": 2615, "\u2581methods": 2616, "mp": 2617, "17": 2618, "\u2581implementing": 2619, "\u2581sat": 2620, "\u2581source": 2621, "\u2581almost": 2622, "000": 2623, "\u2581base": 2624, "\u2581bu": 2625, "\u2581morning": 2626, "\u2581road": 2627, "\u2581livet": 2628, "\u2581Vore": 2629, "\u2581seks": 2630, "\u2581lever": 2631, "\u2581negative": 2632, "\u2581f\u00f8rer": 2633, "01": 2634, "\u2581limited": 2635, "\u2581associated": 2636, "ash": 2637, "\u2581foretages": 2638, "vin": 2639, "\u2581rule": 2640, "\u2581woman": 2641, "\u2581detailed": 2642, "\u2581steel": 2643, "van": 2644, "\u2581mar": 2645, "\u2581return": 2646, "\u2581>": 2647, "erende": 2648, "\u2581dobbelt": 2649, "\u2581society": 2650, "2,": 2651, "\u2581forvaltning": 2652, "\u2581actions": 2653, "\u2581HAR": 2654, "\u2581Art": 2655, "\u2581500": 2656, "ell": 2657, "\u2581lad": 2658, "24": 2659, "\u2581mission": 2660, "\u2581fight": 2661, "\u2581August": 2662, "\u2581byen": 2663, "\u2581language": 2664, "\u2581tvivl": 2665, "\u2581committee": 2666, "\u2581facilities": 2667, "\u2581l\u00f8sning": 2668, "\u2581Development": 2669, "\u258132": 2670, "\u00e6g": 2671, "\u2581double": 2672, "lik": 2673, "45": 2674, "ill": 2675, "kar": 2676, "ran": 2677, "liv": 2678, "\u2581Skal": 2679, "\u2581forst\u00e5r": 2680, "ket": 2681, "\u2581opfylder": 2682, "\u2581netop": 2683, "\u2581ringe": 2684, "\u2581sikkerheds": 2685, "\u2581fort\u00e6lle": 2686, "\u2581movement": 2687, "\u2581Desuden": 2688, "\u2581Ste": 2689, "\u2581ne": 2690, "\u2581objective": 2691, "\u2581Fru": 2692, "\u2581naturligvis": 2693, "ned": 2694, "\u2581best\u00e5r": 2695, "\u2581Sho": 2696, "time": 2697, "pro": 2698, "\u2581weeks": 2699, "\u2581stemme": 2700, "\u2581tr\u00e6ffe": 2701, "\u2581Jack": 2702, "kon": 2703, "\u2581baggrund": 2704, "\u2581monitoring": 2705, "\u2581substances": 2706, "@": 2707, "\u2581CO": 2708, "\u2581sp\u00f8rgsm\u00e5let": 2709, "\u2581analyse": 2710, "\u2581bistand": 2711, "\u2581v\u00e6kst": 2712, "\u2581bro": 2713, "\u2581floor": 2714, "\u2581cross": 2715, "ble": 2716, "\u2581betragtninger": 2717, "\u2581truth": 2718, "\u2581external": 2719, "\u2581latest": 2720, "About": 2721, "\u2581approval": 2722, "\u2581anf\u00f8rt": 2723, "\u2581rapporteur": 2724, "\u2581300": 2725, "\u2581aftaler": 2726, "\u2581reach": 2727, "\u2581consumption": 2728, "\u2581early": 2729, "\u2581interesser": 2730, "\u258130.": 2731, "\u2581publication": 2732, "\u2581welcome": 2733, "eb": 2734, "\u2581kapitel": 2735, "\u2581ten": 2736, "\u2581Part": 2737, "ts": 2738, "\u2581agreed": 2739, "\u2581mo": 2740, "02": 2741, "\u2581Sta": 2742, "\u2581\u00e6ndres": 2743, "az": 2744, "\u2581protect": 2745, "\u2581shown": 2746, "tri": 2747, "led": 2748, "\u2581benefits": 2749, "\u2581Members": 2750, "\u2581enhed": 2751, "\u2581territory": 2752, "\u2581motor": 2753, "\u2581scheme": 2754, "\u2581economy": 2755, "\u2581plant": 2756, "tar": 2757, "\u2581exactly": 2758, "\u2581Brug": 2759, "\u2581strategy": 2760, "ham": 2761, "fer": 2762, "\u2581Spain": 2763, "\u2581friends": 2764, "\u2581travel": 2765, "\u2581fa": 2766, "\u25811990": 2767, "\u2581Pa": 2768, "\u2581\u00f8vrige": 2769, "\u2581com": 2770, "vent": 2771, "\u2581laws": 2772, "\u2581nat": 2773, "\u2581Star": 2774, "\u2581Report": 2775, "\u2581takke": 2776, "\u2581produced": 2777, "\u2581tilbyder": 2778, "\u2581fun": 2779, "\u2581tekst": 2780, "\u2581San": 2781, "\u2581Fa": 2782, "\u2581method": 2783, "\u2581nice": 2784, "\u2581foreign": 2785, "\u2581steder": 2786, "det": 2787, "\u2581n\u00e6rmere": 2788, "\u2581population": 2789, "\u2581sundhed": 2790, "fo": 2791, "\u2581Since": 2792, "\u2581eget": 2793, "\u2581boy": 2794, "\u2581detaljer": 2795, "\u2581pressure": 2796, "\u2581skridt": 2797, "\u2581beautiful": 2798, "\u2581eksisterende": 2799, "\u2581Right": 2800, "\u2581duties": 2801, "\u2581marketing": 2802, "\u2581limit": 2803, "\u2581efforts": 2804, "\u2581h\u00f8rer": 2805, "\u2581wife": 2806, "tor": 2807, "\u2581simple": 2808, "\u2581rundt": 2809, "ake": 2810, "\u2581eksport": 2811, "21": 2812, "\u2581achieve": 2813, "\u2581Time": 2814, "\u2581bade": 2815, "\u2581sense": 2816, "\u2581himself": 2817, "\u2581includes": 2818, "\u2581applications": 2819, "\u2581fremskridt": 2820, "\u2581\u00d8konomiske": 2821, "\u2581decide": 2822, "\u2581reduction": 2823, "\u2581prevent": 2824, "gang": 2825, "\u2581Tom": 2826, "05": 2827, "\u2581safe": 2828, "\u2581Out": 2829, "ized": 2830, "\u2581likely": 2831, "\u2581meaning": 2832, "\u2581walk": 2833, "\u2581inside": 2834, "\u2581York": 2835, "\u2581freedom": 2836, "\u2581adopt": 2837, "\u2581afg\u00f8rende": 2838, "\u2581uger": 2839, "\u2581barn": 2840, "\u2581enheder": 2841, "itter": 2842, "\u2581farve": 2843, "\u2581gal": 2844, "\u2581connection": 2845, "\u2581Red": 2846, "\u2581disease": 2847, "\u2581uge": 2848, "\u2581loss": 2849, "\u2581section": 2850, "\u2581cent": 2851, "23": 2852, "\u2581hedder": 2853, "\u2581Hen": 2854, "3,": 2855, "\u2581features": 2856, "\u25811:": 2857, "tr\u00e6": 2858, "\u2581processing": 2859, "\u2581truffet": 2860, "\u2581recent": 2861, "ernes": 2862, "\u2581anmodning": 2863, "\u2581\u00e5ret": 2864, "\u2581ordning": 2865, "\u2581reduce": 2866, "\u2581gennemf\u00f8re": 2867, "32": 2868, "\u2581tilsvarende": 2869, "\u2581vidste": 2870, "\u2581doctor": 2871, "\u2581File": 2872, "\u2581majority": 2873, "\u2581carry": 2874, "\u2581laying": 2875, "mand": 2876, "gi": 2877, "\u2581undertakings": 2878, "\u2581aware": 2879, "\u2581IN": 2880, "lan": 2881, "\u2581centre": 2882, "\u2581ganske": 2883, "rer": 2884, "\u00b0": 2885, "\u2581website": 2886, "\u2581negotiations": 2887, "\u2581white": 2888, "\u2581liste": 2889, "\u2581\u00f8jeblikket": 2890, "\u2581engang": 2891, "\u2581E\u00d8S": 2892, "\u2581Kar": 2893, "\u2581sugar": 2894, "\u2581letter": 2895, "\u2581VI": 2896, "\u2581vehicles": 2897, "\u2581S\u00e5dan": 2898, "wi": 2899, "\u2581skete": 2900, "\u2581opfattelse": 2901, "\u2581unit": 2902, "70": 2903, "\u2581fiskeri": 2904, "\u2581Char": 2905, "ated": 2906, "\u2581kommet": 2907, "\u2581unders\u00f8gelser": 2908, "\u2581learn": 2909, "\u2581Have": 2910, "elig": 2911, "ep": 2912, "\u2581fjerne": 2913, "\u25811998": 2914, "ana": 2915, "\u2581sea": 2916, "kode": 2917, "\u2581English": 2918, "\u2581jord": 2919, "\u25811/": 2920, "\u2581ekstra": 2921, "\u2581die": 2922, "\u2581hjemmeside": 2923, "03": 2924, "\u2581message": 2925, "\u2581investigation": 2926, "ale": 2927, "\u2581issued": 2928, "aftalen": 2929, "\u2581Sea": 2930, "\u2581spirit": 2931, "\u2581mon": 2932, "tion": 2933, "\u2581forms": 2934, "\u2581labour": 2935, "\u2581opm\u00e6rksom": 2936, "\u2581nor": 2937, "\u2581Protocol": 2938, "\u2581musik": 2939, "\u2581godkendt": 2940, "\u2581milk": 2941, "ent": 2942, "\u2581concern": 2943, "leg": 2944, "\u2581felt": 2945, "\u2581operating": 2946, "\u2581PC": 2947, "\u2581ses": 2948, "\u2581map": 2949, "\u2581bringe": 2950, "\u2581sider": 2951, "\u2581obligations": 2952, "ninger": 2953, "\u2581jobs": 2954, "ew": 2955, "\u25811995": 2956, "arm": 2957, "\u258120.": 2958, "tin": 2959, "\u2581giving": 2960, "\u2581salg": 2961, "ities": 2962, "04": 2963, "\u2581stage": 2964, "\u2581Th": 2965, "\u2581bath": 2966, "\u2581regulations": 2967, "\u2581events": 2968, "\u2581inde": 2969, "\u2581d\u00f8": 2970, "\u2581fred": 2971, "\u2581Dur": 2972, "\u2581ment": 2973, "\u2581Therefore": 2974, "\u2581providing": 2975, "\u25812:": 2976, "elle": 2977, "rom": 2978, "tes": 2979, "\u2581circumstances": 2980, "\u2581mis": 2981, "\u2581Ver": 2982, "\u2581stock": 2983, "\u2581Act": 2984, "\u2581behind": 2985, "k\u00e6rlighed": 2986, "\u2581knew": 2987, "\u2581effektiv": 2988, "\u2581omkostninger": 2989, "jov": 2990, "\u2581m\u00e5ned": 2991, "99": 2992, "?\"": 2993, "\u2581His": 2994, "\u2581Share": 2995, "ort": 2996, "\u2581Rom": 2997, "\u2581High": 2998, "sten": 2999, "\u2581vigtig": 3000, "\u2581remain": 3001, "\u2581institutioner": 3002, "\u2581s\u00f8ge": 3003, "\u2581bilaget": 3004, "\u2581late": 3005, "\u2581Japan": 3006, "\u2581k\u00f8be": 3007, "\u2581sectors": 3008, "if": 3009, "\u258117.": 3010, "\u2581statement": 3011, "ama": 3012, "\u2581handling": 3013, "\u2581dermed": 3014, "spil": 3015, "\u258121.": 3016, "\u2581developing": 3017, "\u2581Hver": 3018, "\u2581funktion": 3019, "\u2581Affairs": 3020, "\u2581everyone": 3021, "\u2581ground": 3022, "\u2581EN": 3023, "\u2581started": 3024, "\u2581ones": 3025, "\u2581Lu": 3026, "2/": 3027, "\u2581Section": 3028, "politik": 3029, "\u2581developed": 3030, "\u2581China": 3031, "13": 3032, "\u2581overall": 3033, "dag": 3034, "\u2581markedet": 3035, "tur": 3036, "\u2581tjeneste": 3037, "tiske": 3038, "\u2581tjenesteydelser": 3039, "\u2581sket": 3040, "\u2581Q": 3041, "\u2581black": 3042, "mi": 3043, "\u2581beskytte": 3044, "\u2581ude": 3045, "\u2581commercial": 3046, "tty": 3047, "ym": 3048, "\u258148": 3049, "\u2581Tri": 3050, "\u2581visit": 3051, "\u2581reported": 3052, "ST": 3053, "\u2581Thor": 3054, "\u2581Kina": 3055, "\u25811996": 3056, "\u2581tool": 3057, "\u2581insurance": 3058, "\u2581Debate": 3059, "\u2581skyld": 3060, "\u2581omr\u00e5det": 3061, "\u2581Mi": 3062, "\u2581Fil": 3063, "\u2581Common": 3064, "\u2581gl\u00e6de": 3065, "\u2581Mange": 3066, "\u2581j": 3067, "\u2581kontakt": 3068, "\u2581foretage": 3069, "\u25812018": 3070, "\u25816,": 3071, "\u2581financing": 3072, "part": 3073, "\u2581heading": 3074, "\u2581projekt": 3075, "\u2581Fe": 3076, "ris": 3077, "\u2581contract": 3078, "\u2581trust": 3079, "\u00e9r": 3080, "\u2581avoid": 3081, "\u2581insulin": 3082, "\u2581r\u00e5d": 3083, "\u266a": 3084, "ryg": 3085, "\u2581extent": 3086, "\u2581fair": 3087, "nt": 3088, "\u2581prepared": 3089, "\u2581Every": 3090, "\u2581historie": 3091, "\u2581phone": 3092, "\u2581user": 3093, "\u2581$": 3094, "\u2581history": 3095, "\u2581Price": 3096, "\u2581response": 3097, "\u2581Office": 3098, "\u2581baby": 3099, "\u2581Ben": 3100, "\u2581R\u00e5d": 3101, "\u2581Take": 3102, "\u2581myself": 3103, "\u2581Lord": 3104, "\u2581throughout": 3105, "\u25811994": 3106, "\u2581specifikke": 3107, "\u2581figure": 3108, "\u2581presented": 3109, "\u2581fundamental": 3110, "\u00a6": 3111, "\u2581tri": 3112, "\u2581Ka": 3113, "ong": 3114, "\u2581billede": 3115, "\u2581innovation": 3116, "31": 3117, "\u258122.": 3118, "\u2581forbundet": 3119, "28": 3120, "\u2581Ta": 3121, "\u2581establishment": 3122, "\u2581regionale": 3123, "\u25811997": 3124, "kker": 3125, "\u2581crisis": 3126, "75": 3127, "\u2581fremtiden": 3128, "\u2581ch": 3129, "\u2581kapital": 3130, "\u258133": 3131, "\u2581species": 3132, "\u2581generelle": 3133, "\u258119.": 3134, "\u2581rigtigt": 3135, "\u2581wants": 3136, "\u2581determined": 3137, "\u2581List": 3138, "\u2581Green": 3139, "\u2581pen": 3140, "\u2581host": 3141, "\u2581eyes": 3142, "\u2581hit": 3143, "\u2581normalt": 3144, "\u2581establish": 3145, "\u2581g\u00e5et": 3146, "\u25811993": 3147, "\u258136": 3148, "\u2581grupper": 3149, "hose": 3150, "\u2581opgave": 3151, "\u2581rammerne": 3152, "\u2581ramme": 3153, "\u2581require": 3154, "hus": 3155, "\u2581fruit": 3156, "\u2581thinking": 3157, "\u2581Madam": 3158, "\u2581extreme": 3159, "fi": 3160, "\u2581accounts": 3161, "\u2581Vent": 3162, "1,": 3163, "\u2581American": 3164, "\u2581handle": 3165, "\u2581Chapter": 3166, "\u2581Far": 3167, "\u2581Inter": 3168, "\u2581probably": 3169, "\u2581retning": 3170, "don": 3171, "\u2581kr": 3172, "\u2581Book": 3173, "\u2581stilling": 3174, "\u2581series": 3175, "\u2581near": 3176, "\u2581Greece": 3177, "si": 3178, "\u2581perfect": 3179, "\u2581Gi": 3180, "\u2581st\u00e5l": 3181, "\u2581definition": 3182, "\u2581Security": 3183, "\u2581killed": 3184, "\u258129.": 3185, "\u2581door": 3186, "60": 3187, "\u2581located": 3188, "\u2581fastsatte": 3189, "\u2581Research": 3190, "\u2581across": 3191, "\u2581lower": 3192, "tid": 3193, "\u2581uanset": 3194, "\u2581happy": 3195, "\u2581Che": 3196, "ink": 3197, "\u2581Joint": 3198, "\u2581bes\u00f8g": 3199, "26": 3200, "\u2581binding": 3201, "\u2581certainly": 3202, "\u2581if\u00f8lge": 3203, "\u2581opfylde": 3204, "\u2581space": 3205, "\u2581Ko": 3206, "\u2581bord": 3207, "\u2581gr\u00e6nse": 3208, "\u2581sales": 3209, "\u2581Will": 3210, "1.": 3211, "\u2581industri": 3212, "\u2581regioner": 3213, "\u2581viden": 3214, "\u2581kolleger": 3215, "\u2581hands": 3216, "\u2581beskrivelse": 3217, "\u2581sektor": 3218, "\u2581anyone": 3219, "ip": 3220, "\u2581powers": 3221, "ms": 3222, "\u2581pass": 3223, "\u2581shows": 3224, "\u2581choice": 3225, "\u2581expressed": 3226, "\u2581contains": 3227, "\u2581Hu": 3228, "\u258150%": 3229, "\u2581vejen": 3230, "\u2581aim": 3231, "\u2581leder": 3232, "sta": 3233, "\u2581item": 3234, "\u2581fish": 3235, "board": 3236, "rus": 3237, "\u2581Ju": 3238, "\u2581seems": 3239, "\u2581medium": 3240, "\u2581Domstolen": 3241, "1/": 3242, "\u2581ni": 3243, "\u2581Max": 3244, "\u2581Real": 3245, "06": 3246, "ally": 3247, "\u2581promote": 3248, "log": 3249, "\u2581warrant": 3250, "ock": 3251, "\u2581ways": 3252, "\u2581kvinde": 3253, "org": 3254, "\u2581currently": 3255, "sto": 3256, "\u2581Log": 3257, "rum": 3258, "\u2581City": 3259, "44": 3260, "\u2581holdt": 3261, "dro": 3262, "\u2581ho": 3263, "\u2581mark": 3264, "heden": 3265, "\u2581Read": 3266, "\u2581hair": 3267, "eu": 3268, "\u2581magt": 3269, "\u2581states": 3270, "lov": 3271, "DA": 3272, "\u2581buy": 3273, "22": 3274, "\u2581igennem": 3275, "fra": 3276, "\u2581H\u00f8r": 3277, "\u2581port": 3278, "\u258100": 3279, "\u2581h\u00f8rt": 3280, "spolitik": 3281, "are": 3282, "\u2581HAS": 3283, "\u2581pr\u00f8ver": 3284, "\u2581send": 3285, "\u25813:": 3286, "\u2581dosis": 3287, "sch": 3288, "\u2581device": 3289, "\u2581THI": 3290, "\u2581foretaget": 3291, "\u2581scope": 3292, "\u2581religion": 3293, "\u2581antallet": 3294, "\u2581Finally": 3295, "\u2581sikrer": 3296, "\u2581g\u00f8res": 3297, "\u00f6": 3298, "\u2581task": 3299, "\u2581super": 3300, "\u2581aspects": 3301, "\u2581s\u00e5vel": 3302, "\u2581begynder": 3303, "ette": 3304, "\u2581skyldes": 3305, "\u2581intervention": 3306, "\u2581Pr": 3307, "\u2581described": 3308, "\u2581mangler": 3309, "\u2581mass": 3310, "lon": 3311, "\u258118.": 3312, "\u2581Ad": 3313, "ING": 3314, "\u0327": 3315, "\u2581mindste": 3316, "ica": 3317, "\u2581gone": 3318, "\u2581immediately": 3319, "\u2581multi": 3320, "\u2581modtage": 3321, "\u2581begyndte": 3322, "\u2581professional": 3323, "\u2581happen": 3324, "program": 3325, "\u2581entire": 3326, "\u2581charge": 3327, "\u2581reading": 3328, "\u2581team": 3329, "\u2581beslutninger": 3330, "\u2581Down": 3331, "\u2581substance": 3332, "\u2581perioden": 3333, "\u2581situationen": 3334, "\u2581Even": 3335, "ser": 3336, "\u2581app": 3337, "\u2581n\u00e6rv\u00e6rende": 3338, "\u2581Spanien": 3339, "5/": 3340, "39": 3341, "\u2581writing": 3342, "pa": 3343, "\u2581Agency": 3344, "\u2581Ni": 3345, "\u2581allowed": 3346, "\u2581creation": 3347, "\u2581reduced": 3348, "ister": 3349, "\u2581handler": 3350, "\u2581Micro": 3351, "\u2581straks": 3352, "\u2581Hus": 3353, "ence": 3354, "\u2581enjoy": 3355, "\u2581Service": 3356, "kt": 3357, "ide": 3358, "\u2581proceedings": 3359, "\u2581ra": 3360, "fast": 3361, "\u2581Mon": 3362, "\u2581obtained": 3363, "\u2581st\u00f8tter": 3364, "\u258144": 3365, "\u2581pick": 3366, "\u2581stykke": 3367, "\u2581card": 3368, "\u2581fall": 3369, "\u2581Land": 3370, "\u2581Camp": 3371, "\u2581fasts\u00e6ttelse": 3372, "\u2581highly": 3373, "\u2581beginning": 3374, "\u2581dvs": 3375, "90": 3376, "\u2581st\u00f8rrelse": 3377, "ob": 3378, "\u2581\u00f8nske": 3379, "LE": 3380, "\u2581allows": 3381, "\u2581Mal": 3382, "\u2581svarer": 3383, "\u2581add": 3384, "\u2581s\u00f8rge": 3385, "ich": 3386, "\u2581lives": 3387, "\u2581k\u00e6re": 3388, "\u2581helst": 3389, "ating": 3390, "\u2581F\u00e6lles": 3391, "\u2581dokumenter": 3392, "\u2581anvendt": 3393, "\u2581Add": 3394, "\u2581court": 3395, "gar": 3396, "\u2581volume": 3397, "\u2581l\u00e6ge": 3398, "ial": 3399, "\u2581Unionens": 3400, "\u2581t\u00e6nkt": 3401, "\u2581kendt": 3402, "\u2581article": 3403, "\u2581radio": 3404, "\u2581lay": 3405, "\u2581bud": 3406, "\u2581amounts": 3407, "\u2581hertil": 3408, "\u2581Justice": 3409, "ci": 3410, "air": 3411, "\u2581Ga": 3412, "low": 3413, "\u2581conclusion": 3414, "\u2581correct": 3415, "\u2581tilbud": 3416, "\u2581bidrage": 3417, "\u2581West": 3418, "!\"": 3419, "27": 3420, "\u2581ba": 3421, "\u2581Kontakt": 3422, "\u258134": 3423, "\u2581written": 3424, "\u2581brother": 3425, "\u2581numbers": 3426, "\u2581bindende": 3427, "G\u00e5": 3428, "\u2581(5)": 3429, "\u2581trods": 3430, "\u2581concluded": 3431, "\u2581v\u00e6rkt\u00f8j": 3432, "\u258137": 3433, "\u2581for\u00e6ldre": 3434, "\u2581tilladelse": 3435, "\u2581begynde": 3436, "\u2581click": 3437, "\u2581separate": 3438, "\u2581expected": 3439, "\u2581Sch": 3440, "\u2581element": 3441, "\u2581karakter": 3442, "\u2581whom": 3443, "\u2581resultat": 3444, "\u2581save": 3445, "ause": 3446, "PPE": 3447, "\u2581bort": 3448, "\u2581offentlig": 3449, "\u2581People": 3450, "\u2581anses": 3451, "\u2581brand": 3452, "\u2581n\u00e6r": 3453, "\u2581omfatte": 3454, "\u2581Gear": 3455, "gg": 3456, "\u2581unless": 3457, "\u2581Em": 3458, "\u2581funktioner": 3459, "\u2581fors\u00f8g": 3460, "\u2581angivet": 3461, "36": 3462, "borg": 3463, "ph": 3464, "08": 3465, "\u2581Dan": 3466, "\u2581Var": 3467, "\u2581hj\u00e6lper": 3468, "\u2581steps": 3469, "gues": 3470, "ust": 3471, "\u2581udvikle": 3472, "95": 3473, "\u2581adoption": 3474, "\u2581fremstilling": 3475, "\u2581statistics": 3476, "\u2581spare": 3477, "eres": 3478, "\u2581although": 3479, "hold": 3480, "\u2581Like": 3481, "\u2581Finland": 3482, "lem": 3483, "Den": 3484, "\u2581Case": 3485, "aj": 3486, "\u00e6l": 3487, "\u2581parents": 3488, "elige": 3489, "\u2581ar": 3490, "\u2581<": 3491, "\u2581pos": 3492, "v\u00e6r": 3493, "\u2581stat": 3494, "\u2581fantas": 3495, "\u2581goes": 3496, "pil": 3497, "\u258164": 3498, "\u2581Wai": 3499, "\u2581gammel": 3500, "\u2581partner": 3501, "\u2581gennemf\u00f8res": 3502, "\u2581originating": 3503, "\u2581begr\u00e6nset": 3504, "\u2581k\u00f8re": 3505, "\u2581rigtige": 3506, "\u2581umiddelbart": 3507, "\u2581lader": 3508, "\u2581s\u00e6rligt": 3509, "\u2581forts\u00e6tte": 3510, "\u2581University": 3511, "\u2581ked": 3512, "\u2581physical": 3513, "ile": 3514, "\u2581perfekt": 3515, "\u2581Ed": 3516, "\u2581consumer": 3517, "\u2581#": 3518, "ko": 3519, "\u2581info": 3520, "\u2581virker": 3521, "\u2581inform": 3522, "\u2581EUROP\u00c6ISKE": 3523, "\u2581assets": 3524, "\u2581Minister": 3525, "\u2581lack": 3526, "bed": 3527, "\u2581bor": 3528, "\u2581forst\u00e5": 3529, "mme": 3530, "\u2581revision": 3531, "\u2581TO": 3532, "dd": 3533, "\u2581sv\u00e6rt": 3534, "\u2581reviews": 3535, "\u2581teknologi": 3536, "\u2581m\u00e6ngde": 3537, "\u20ac": 3538, "\u2581draw": 3539, "j\u00e6l": 3540, "\u2581Bad": 3541, "\u258143": 3542, "\u2581Giv": 3543, "EL": 3544, "\u2581forud": 3545, "ians": 3546, "\u258125.": 3547, "\u2581opgaver": 3548, "\u2581achieved": 3549, "\u2581emissions": 3550, "\u2581fremstillet": 3551, "\u258184": 3552, "\u2581fort\u00e6ller": 3553, "\u2581Special": 3554, "OS": 3555, "\u00f8n": 3556, "\u2581manglende": 3557, "\u2581White": 3558, "\u2581egenskaber": 3559, "\u2581Sig": 3560, "\u2581Contact": 3561, "ries": 3562, "\u2581landet": 3563, "bra": 3564, "ska": 3565, "\u2581storage": 3566, "\u2581affected": 3567, "\u2581arm": 3568, "78": 3569, "bit": 3570, "dre": 3571, "\u2581udelukkende": 3572, "\u2581ADOPTED": 3573, "\u2581principper": 3574, "\u2581participation": 3575, "\u2581para": 3576, "\u2581l\u00f8se": 3577, "\u258139": 3578, "\u2581meat": 3579, "ET": 3580, "\")": 3581, "\u2581notice": 3582, "\u2581150": 3583, "\u2581pension": 3584, "\u2581worked": 3585, "\u2581spise": 3586, "49": 3587, "\u2581v\u00e5ben": 3588, "\u2581ring": 3589, "\u2581organer": 3590, "wa": 3591, "\u2581Health": 3592, "\u2581property": 3593, "47": 3594, "\u2581Park": 3595, "\u2581omfattende": 3596, "dan": 3597, "cl": 3598, "ox": 3599, "\u2581l\u00e6se": 3600, "\u2581organization": 3601, "bestemmelser": 3602, "\u2581COM": 3603, "mad": 3604, "\u2581betale": 3605, "\u2581Sir": 3606, "\u2581foranstaltning": 3607, "3/": 3608, "\u2581completely": 3609, "\u2581dato": 3610, "\u2581Link": 3611, "\u2581concerns": 3612, "\u2581Authority": 3613, "\u2581Party": 3614, "vil": 3615, "\u258142": 3616, "\u2581UK": 3617, "4,": 3618, "29": 3619, "\u2581viste": 3620, "\u2581samlet": 3621, "\u258165": 3622, "\u2581daily": 3623, "lick": 3624, "\u2581ende": 3625, "\u2581forbindelser": 3626, "\u2581applicant": 3627, "\u2581stated": 3628, "\u2581medical": 3629, "35": 3630, "\u2581Tre": 3631, "\u2581Euratom": 3632, "\u2581Great": 3633, "3.": 3634, "\u2581tra": 3635, "\u2581amendment": 3636, "\u2581begin": 3637, "\u2581hermed": 3638, "\u2581dr\u00e6be": 3639, "mod": 3640, "\u2581franske": 3641, "\u2581bem\u00e6rkninger": 3642, "\u2581bi": 3643, "\u2581function": 3644, "\u2581frist": 3645, "\u2581Anti": 3646, "qui": 3647, "\u2581town": 3648, "\u2581subparagraph": 3649, "\u2581deltage": 3650, "\u2581t\u00e6nke": 3651, "\u2581tilg\u00e6ngelige": 3652, "\u2581Such": 3653, "\u2581comply": 3654, "ory": 3655, "\u2581undtagen": 3656, "\u2581structure": 3657, "iz": 3658, "\u2581st\u00e5": 3659, "\u2581skole": 3660, "\u2581papir": 3661, "\u2581UN": 3662, "\u2581undertaking": 3663, "hi": 3664, "\u2581faste": 3665, "\u2581endelige": 3666, "tre": 3667, "\u2581vedkommende": 3668, "\u2581speed": 3669, "\u2581borgere": 3670, "\u2581condition": 3671, "\u2581investeringer": 3672, "\u2581Africa": 3673, "\u2581EEC": 3674, "\u2581interested": 3675, "\u2581prior": 3676, "\u2581vilje": 3677, "eth": 3678, "\u2581track": 3679, "\u2581betaling": 3680, "ben": 3681, "\u2581Endelig": 3682, "\u2581drawn": 3683, "\u2581s\u00e6tter": 3684, "raz": 3685, "\u2581payments": 3686, "\u2581procedurer": 3687, "\u2581teknisk": 3688, "\u2581ski": 3689, "\u2581detail": 3690, "\u2581tjenester": 3691, "\u2581sol": 3692, "\u2581bog": 3693, "rk": 3694, "\u2581G\u00f8r": 3695, "\u2581f\u00f8ler": 3696, "\u2581Apart": 3697, "\u2581betragtes": 3698, "ax": 3699, "que": 3700, "48": 3701, "\u2581tomorrow": 3702, "\u2581modtaget": 3703, "\u25811989": 3704, "\u2581l\u00e5n": 3705, "rig": 3706, "\u2581\u00e9t": 3707, "\u2581bekymre": 3708, "\u2581category": 3709, "\u2581red": 3710, "\u2581valuta": 3711, "\u25811980": 3712, "programmet": 3713, "\u2581except": 3714, "\u2581eks": 3715, "\u2581opportunities": 3716, "\u2581East": 3717, "\u2581Ne": 3718, "ru": 3719, "\u2581rige": 3720, "\u2581birth": 3721, "\u2581lines": 3722, "\u2581trans": 3723, "\u2581fo": 3724, "\u2581rum": 3725, "09": 3726, "\u2581initiative": 3727, "\u2581fuldst\u00e6ndig": 3728, "\u258128.": 3729, "\u00e6re": 3730, "\u2581North": 3731, "\u2581plus": 3732, "\u2581police": 3733, "\u2581scientific": 3734, "EFT": 3735, "sm\u00e6ssige": 3736, "\u2581accepted": 3737, "\u2581enable": 3738, "\u2581elements": 3739, "\u2581Sal": 3740, "itch": 3741, "\u2581ran": 3742, "\u2581dels": 3743, "\u2581samfund": 3744, "\u2581fint": 3745, "py": 3746, "\u2581machine": 3747, "skrift": 3748, "stal": 3749, "\u2581Italian": 3750, "\u2581became": 3751, "\u2581Business": 3752, "ls": 3753, "\u2581orden": 3754, "\u2581union": 3755, "\u2581practical": 3756, "\u2581organisationer": 3757, "\u2581Before": 3758, "\u2581hvori": 3759, "\u203a": 3760, "\u2581compliance": 3761, "ef": 3762, "\u2581ressourcer": 3763, "\u2581skrive": 3764, "\u2581income": 3765, "\u258123.": 3766, "kel": 3767, "jern": 3768, "\u2581initial": 3769, "\u2581august": 3770, "\u2581bus": 3771, "\u2581bygge": 3772, "38": 3773, "\u2581indicated": 3774, "\u2581meetings": 3775, "\u2581restaurant": 3776, "\u2581alternative": 3777, "\u2581priority": 3778, "\u2581tur": 3779, "\u2581kommende": 3780, "\u2581fremg\u00e5r": 3781, "act": 3782, "\u2581demand": 3783, "\u258155": 3784, "\u2581effektivt": 3785, "\u2581ber\u00f8rte": 3786, "fin": 3787, "\u2581n\u00f8gle": 3788, "\u2581tids": 3789, "\u2581h\u00f8jde": 3790, "\u2581stof": 3791, "\u2581vedtog": 3792, "\u2581m\u00e6ngder": 3793, "\u2581telefon": 3794, "\u2581oprindelige": 3795, "\u2581nuclear": 3796, "55": 3797, "r\u00f8": 3798, "\u2581wine": 3799, "\u258138": 3800, "\u2581wonder": 3801, "\u2581exercise": 3802, "ction": 3803, "\u2581vessels": 3804, "kken": 3805, "\u2581FN": 3806, "ero": 3807, "bel": 3808, "bord": 3809, "\u2581deltagelse": 3810, "\u2581Fred": 3811, "\u2581units": 3812, "\u2581bet\u00e6nkningen": 3813, "lie": 3814, "unt": 3815, "\u2581faith": 3816, "\u2581Jerusalem": 3817, "\u2581Description": 3818, "lav": 3819, "\u2581Dansk": 3820, "\u2581eventuelle": 3821, "\u2581America": 3822, ".1": 3823, "\u2581Done": 3824, "\u2581aktiver": 3825, "\u2581Implementing": 3826, "\u2581[1]": 3827, "\u2581Val": 3828, "\u2581COMMISSION": 3829, "\u2581forbedring": 3830, "\u2581Barcelona": 3831, "\u2581contracts": 3832, "gre": 3833, "\u2581skat": 3834, "lag": 3835, "\u2581br\u00f8d": 3836, "\u2581Search": 3837, "\u2581extra": 3838, "\u2581reached": 3839, "\u2581Table": 3840, "ii": 3841, "\u2581king": 3842, "6/": 3843, "\u25817,": 3844, "\u2581class": 3845, "8/": 3846, "ba": 3847, "\u2581remove": 3848, "\u2581bange": 3849, "\u2581producenter": 3850, "\u2581Policy": 3851, "\u2581sufficient": 3852, "ita": 3853, "yn": 3854, "\u2581cultural": 3855, "\u2581construction": 3856, "\u2581revolution": 3857, "41": 3858, "sted": 3859, "\u2581Mark": 3860, "\u2581exceeding": 3861, "sp": 3862, "\u2581bestemmelse": 3863, "\u2581sale": 3864, "ments": 3865, "ningen": 3866, "\u25811984": 3867, "\u2581skin": 3868, "\u2581brugt": 3869, "\u2581knows": 3870, "\u2581kriterier": 3871, "\u2581m\u00f8der": 3872, "\u2581varme": 3873, "mark": 3874, "33": 3875, "07": 3876, "\u2581uses": 3877, "\u25810,": 3878, "\u2581board": 3879, "so": 3880, "\u2581billion": 3881, "\u2581image": 3882, "ave": 3883, "\u2581otherwise": 3884, "\u2581guidelines": 3885, "\u2581olie": 3886, "\u2581wide": 3887, "2.": 3888, "\u2581specielt": 3889, "\u25811991": 3890, "ya": 3891, "\u2581IP": 3892, "\u258193": 3893, "str": 3894, "\u2581kirke": 3895, "\u25812017": 3896, "\u2581Fordi": 3897, "\u2581Nord": 3898, "pi": 3899, "\u2581running": 3900, "app": 3901, "\u2581Br": 3902, "\u2581permanent": 3903, "\u2581proceduren": 3904, "\u2581tree": 3905, "\u2581Netherlands": 3906, "\u2581?": 3907, "\u2581hverken": 3908, "\u2581instrumenter": 3909, "\u2581endvidere": 3910, "\u2581deals": 3911, "AT": 3912, "\u2581Post": 3913, "\u2581Centre": 3914, "\u2581organisations": 3915, "\u2581followed": 3916, "dyr": 3917, "uff": 3918, "core": 3919, "\u2581anvender": 3920, "bor": 3921, "\u2581Power": 3922, "65": 3923, "\u2581kamp": 3924, "\u25814:": 3925, "\u2581recovery": 3926, "\u2581eat": 3927, "\u2581select": 3928, "cr": 3929, "ID": 3930, "\u2581affect": 3931, "\u2581undtagelse": 3932, "pp": 3933, "\u2581opening": 3934, "mat": 3935, "\u2581plants": 3936, "\u2581relationship": 3937, "COM": 3938, "tte": 3939, "\u2581comments": 3940, "ue": 3941, "\u2581opfyldt": 3942, "\u2581lose": 3943, "\u2581possibility": 3944, "\u2581Total": 3945, "\u2581airport": 3946, "\u2581ability": 3947, "\u2581representative": 3948, "\u2581According": 3949, "\u2581Hos": 3950, "ward": 3951, "\u25811).": 3952, "tle": 3953, "\u258149": 3954, "\u2581fulde": 3955, "mit": 3956, "\u2581ej": 3957, "\u2581z": 3958, "4.": 3959, "\u2581tjener": 3960, "\u2581Udvalg": 3961, "\u2581dom": 3962, "\u2581indstilling": 3963, "berg": 3964, "\u258127.": 3965, "TE": 3966, "hel": 3967, "\u2581Hel": 3968, "\u2581patient": 3969, "\u25812-": 3970, "\u2581\u00f8vrigt": 3971, "\u2581stress": 3972, "46": 3973, "\u2581sand": 3974, "\u2581View": 3975, "\u2581lu": 3976, "\u2581Area": 3977, "\u2581kept": 3978, "\u00e6v": 3979, "\u258101": 3980, "\u2581compared": 3981, "\u2581representatives": 3982, "\u2581Bas": 3983, "\u2581modern": 3984, "\u2581Str": 3985, "\u2581heaven": 3986, "\u2581output": 3987, "RE": 3988, "\u25811988": 3989, "off": 3990, "\u2581proces": 3991, "\u2581wind": 3992, "\u2581treated": 3993, "\u2581faciliteter": 3994, "\u2581acts": 3995, "7/": 3996, "\u2581holding": 3997, "\u258124.": 3998, "\u2581unemployment": 3999, "\u2581Canada": 4000, "\u2581starting": 4001, "\u2581affald": 4002, "var": 4003, "\u258110%": 4004, "\u2581udvidelse": 4005, "\u2581components": 4006, "\u2581indeed": 4007, "\u2581organ": 4008, "mu": 4009, "\u2581Board": 4010, "isation": 4011, "mal": 4012, "\u2581virkninger": 4013, "lor": 4014, "\u2581deltager": 4015, "\u2581lo": 4016, "\u25811983": 4017, "\u25811985": 4018, "omr\u00e5det": 4019, "\u2581items": 4020, "\u2581tegn": 4021, "ike": 4022, "\u00f8s": 4023, "\u2581aspekter": 4024, "ater": 4025, "\u2581increasing": 4026, "ringer": 4027, "\u2581gennemf\u00f8rt": 4028, "\u2581effekt": 4029, "\u258126.": 4030, "\u2581clean": 4031, "\u2581opened": 4032, "\u2581dimension": 4033, "\u2581break": 4034, "\u25811981": 4035, "\u2581hot": 4036, "\u2581factors": 4037, "\u2581difference": 4038, "US": 4039, "\u2581infrastructure": 4040, "\u2581recommended": 4041, "\u2581Jan": 4042, "\u2581Ab": 4043, "s\u00e6t": 4044, "\u2581Hav": 4045, "\u2581sl\u00e5": 4046, "\u2581Inden": 4047, "zz": 4048, "\u25811986": 4049, "\u2581round": 4050, "\u2581caused": 4051, "\u2581entered": 4052, "\u00f8g": 4053, "\u2581mulige": 4054, "\u2581independent": 4055, "\u2581limits": 4056, "\u2581structural": 4057, "ath": 4058, "\u2581Two": 4059, "lle": 4060, "-1": 4061, "\u2581d\u00f8r": 4062, "\u2581description": 4063, "5.": 4064, "\u2581\u00f8konomi": 4065, "\u2581bedst": 4066, "heder": 4067, "\u2581fysiske": 4068, "85": 4069, "\u2581built": 4070, "\u2581sign": 4071, "\u2581gr\u00e6nser": 4072, "r\u00e6": 4073, "\u2581Human": 4074, "pon": 4075, "\u2581frihed": 4076, ".10.": 4077, "v\u00e6rre": 4078, "\u2581leg": 4079, "\u2581partners": 4080, "cho": 4081, "\u2581requires": 4082, "\u2581domestic": 4083, "\u258187": 4084, "\u2581redde": 4085, "\u2581fresh": 4086, "\u2581skaber": 4087, ".11.": 4088, "\u2581fastlagt": 4089, "udvalget": 4090, "\u2581handels": 4091, "56": 4092, "\u258103": 4093, "\u2581Only": 4094, "\u2581100%": 4095, "\u2581Berlin": 4096, "\u2581k\u00e6mpe": 4097, "\u2581maintain": 4098, "\u2581Sweden": 4099, "\u2581plans": 4100, "\u2581Fire": 4101, "ons": 4102, "\u2581Presidency": 4103, "lap": 4104, "9/": 4105, "\u2581signal": 4106, "\u2581f\u00e6rdig": 4107, "\u2581location": 4108, "\u2581forslaget": 4109, "\u2581acid": 4110, "\u00e1": 4111, "\u2581h\u00e5r": 4112, "\u2581build": 4113, "\u2581authorisation": 4114, "\u2581employees": 4115, "\u2581military": 4116, "\u2581fare": 4117, "nat": 4118, "\u2581submit": 4119, "\u2581betingelserne": 4120, "\u2581thi": 4121, "\u2581h\u00f8jre": 4122, "\u2581(1": 4123, "\u2581discuss": 4124, "\u2581hjemme": 4125, "\u2581risks": 4126, "\u2581col": 4127, "\u2581pengene": 4128, "\u2581retningslinjer": 4129, "bu": 4130, "\u2581rigtig": 4131, "\u2581Irland": 4132, "nu": 4133, "\u2581luft": 4134, "\u2581Udf\u00e6rdiget": 4135, "\u2581Financial": 4136, "\u2581instead": 4137, "\u2581sende": 4138, "79": 4139, "\u2581stillet": 4140, "\u2581seven": 4141, "\u2581association": 4142, "\u2581osv": 4143, "\u258195": 4144, "\u2581\u00f8nskede": 4145, "\u2581placed": 4146, "\u2581k\u00f8d": 4147, "\u2581Flere": 4148, "\u2581h\u00f8je": 4149, "\u2581sun": 4150, "ney": 4151, "\u2581seem": 4152, "\u2581option": 4153, "\u2581Nor": 4154, "43": 4155, "gent": 4156, "\u2581%": 4157, "\u2581useful": 4158, "34": 4159, "\u2581meter": 4160, "\u2581\u00f8get": 4161, "\u2581stil": 4162, "tu": 4163, "\u2581implemented": 4164, "hat": 4165, "za": 4166, "\u2581media": 4167, "\u2581grant": 4168, "5,": 4169, "\u2581drift": 4170, "\u2581perhaps": 4171, "\u2581Use": 4172, "\u2581indflydelse": 4173, "\u2581Mc": 4174, "\u2581materialer": 4175, "\u2581Turkey": 4176, "\u2581Mag": 4177, "\u2581Sha": 4178, "\u2581korrekt": 4179, "\u2581raised": 4180, "\u2581l\u00e5": 4181, "\u25813-": 4182, "\u2581articles": 4183, "\u2581ophold": 4184, "\u2581focus": 4185, "ative": 4186, "\u2581venligst": 4187, "\u2581lig": 4188, "\u2581couple": 4189, "66": 4190, "\u2581krig": 4191, "inger": 4192, "\u2581foto": 4193, "\u2581konge": 4194, "\u2581equivalent": 4195, "\u2581wood": 4196, "\u2581Code": 4197, "av": 4198, "\u2581udarbejdet": 4199, "81": 4200, "\u2581henh\u00f8rende": 4201, "\u25818,": 4202, "\u2581collection": 4203, "\u2581consumers": 4204, "\u2581declaration": 4205, "37": 4206, "\u2581died": 4207, "\u2581produce": 4208, "par": 4209, "\u2581AVS": 4210, "\u2581dialogue": 4211, "\u2581customers": 4212, "\u2581aktivitet": 4213, "\u2581t\u00e6nker": 4214, "\u2581changed": 4215, "\u2581manner": 4216, "ists": 4217, "\u2581automatisk": 4218, "\u2581moderne": 4219, "\u2581properties": 4220, "\u2581strategi": 4221, "\u2581Kristus": 4222, "ade": 4223, "\u2581driver": 4224, "\u2581resultaterne": 4225, "\u258186": 4226, "\u258141": 4227, "\u2581programmet": 4228, "\u2581bede": 4229, "lej": 4230, "abel": 4231, "bog": 4232, "\u2581monetary": 4233, "\u2581sources": 4234, "\u2581statsst\u00f8tte": 4235, "-2": 4236, "\u2581effort": 4237, "\u2581delivered": 4238, "\u2581metoder": 4239, "\u2581sidst": 4240, "vid": 4241, "sigt": 4242, "\u2581completed": 4243, "\u25811)": 4244, "\u25811987": 4245, "\u2581levende": 4246, "\u2581Copenhagen": 4247, "\u2581authorised": 4248, "\u2581sex": 4249, "\u2581beder": 4250, "its": 4251, "oc": 4252, "\u2581register": 4253, "\u2581Transport": 4254, "\u2581dangerous": 4255, "ship": 4256, "ize": 4257, "\u2581Does": 4258, "\u2581herom": 4259, "\u2581funding": 4260, "\u2581overv\u00e5gning": 4261, "\u2581sager": 4262, "but": 4263, "q": 4264, "EO": 4265, "\u2581stoppe": 4266, "\u2581sukker": 4267, "\u2581yes": 4268, "\u2581affattes": 4269, "\u2581pain": 4270, "\u2581Sky": 4271, "\u2581judgment": 4272, "\u2581[2]": 4273, "\u2581egentlig": 4274, "\u2581v\u00e6gtprocent": 4275, "\u2581calls": 4276, "\u2581begyndelsen": 4277, "\u2581accession": 4278, "\u2581sammenh\u00e6ng": 4279, "\u2581tag": 4280, "ova": 4281, "\u2581hurt": 4282, "\u2581package": 4283, "las": 4284, "\u2581easily": 4285, "\u2581beyond": 4286, "\u2581alvorlige": 4287, "\u2581\u00e5rlige": 4288, "\u2581foran": 4289, "siden": 4290, "\u2581ANNEX": 4291, "\u2581motion": 4292, "\u2581email": 4293, "\u2581skatte": 4294, "\u2581personale": 4295, "\u2581exceed": 4296, "\u2581medicinal": 4297, ".12.": 4298, "\u2581Follow": 4299, "ves": 4300, "\u2581nummer": 4301, "\u2581officielle": 4302, "plan": 4303, "\u2581fear": 4304, "\u2581continued": 4305, "\u2581lavet": 4306, "\u2581tried": 4307, "\u2581Son": 4308, "\u2581budgetary": 4309, "\u2581tilstr\u00e6kkelig": 4310, "\u2581forhandling": 4311, "\u2581evig": 4312, "\u2581unders\u00f8ge": 4313, "other": 4314, "\u2581Si": 4315, "\u2581coordination": 4316, "\u2581udvalget": 4317, "\u2581ter": 4318, "ngel": 4319, "\u2581King": 4320, "\u2581release": 4321, "\u2581currency": 4322, "\u2581Greek": 4323, "\u2581Tyrkiet": 4324, "\u2581fremtid": 4325, "\u2581debat": 4326, "Fi": 4327, "\u2581n\u00f8dvendig": 4328, "\u2581quantities": 4329, "ille": 4330, "\u2581Eller": 4331, "\u2581f\u00f8dt": 4332, "\u2581supposed": 4333, "\u2581feed": 4334, "\u2581democratic": 4335, "\u2581introduced": 4336, "rid": 4337, "\u2581introduction": 4338, "\u2581m\u00e6rke": 4339, "\u2581Van": 4340, "ssystem": 4341, "\u2581popular": 4342, "\u2581looks": 4343, "ient": 4344, "\u2581students": 4345, "\u2581contain": 4346, "\u2581IT": 4347, "rant": 4348, "\u2581damage": 4349, "\u2581lette": 4350, "mann": 4351, "\u2581box": 4352, "forordning": 4353, "\u2581BILAG": 4354, "v\u00e6rkt\u00f8j": 4355, "\u2581sove": 4356, "\u2581punkter": 4357, "ada": 4358, "\u2581\u00e5rhundrede": 4359, "\u2581places": 4360, "\u2581fl": 4361, "ations": 4362, "\u258146": 4363, "\u2581alligevel": 4364, "\u2581born": 4365, "\u2581investerings": 4366, "\u2581netv\u00e6rk": 4367, "\u2581amerikanske": 4368, "\u2581Sverige": 4369, "\u2581repr\u00e6sentanter": 4370, "ari": 4371, "\u2581enig": 4372, "\u2581succes": 4373, "\u258147": 4374, "mmer": 4375, "\u2581applies": 4376, "\u2581metode": 4377, "\u2581v\u00e6sentlige": 4378, "\u2581falder": 4379, "\u2581flag": 4380, "\u2581Sand": 4381, "\u2581Mus": 4382, "76": 4383, "\u2581evaluation": 4384, "\u2581determine": 4385, "\u2581180": 4386, "stand": 4387, "\u2581expect": 4388, "\u2581requested": 4389, "\u2581ren": 4390, "\u2581generelt": 4391, "uch": 4392, "\u2581certificate": 4393, "\u2581medf\u00f8r": 4394, "\u2581s\u00f8ger": 4395, "/2004": 4396, "\u2581vidner": 4397, "\u2581thanks": 4398, "\u2581struktur": 4399, "\u2581st\u00e6rkt": 4400, "box": 4401, "OR": 4402, "\u2581record": 4403, "9,": 4404, "En": 4405, "\u00e6nk": 4406, "\u2581actual": 4407, "\u258177": 4408, "\u2581supplerende": 4409, "68": 4410, "\u2581sp\u00f8rge": 4411, "kom": 4412, "\u2581proper": 4413, "\u2581skabt": 4414, "\u2581udf\u00f8re": 4415, "\u2581Eli": 4416, "\u2581kravene": 4417, "\u2581Amsterdam": 4418, "piller": 4419, "\u2581initiativ": 4420, "efter": 4421, "\u2581variety": 4422, "\u2581voice": 4423, "\u2581Type": 4424, "\u2581signed": 4425, "\u2581Gr\u00e6kenland": 4426, "\u2581loans": 4427, "\u2581ACP": 4428, "\u2581languages": 4429, "\u2581finally": 4430, "\u2581stater": 4431, "che": 4432, "\u2581personlige": 4433, "drag": 4434, "\u2581contribute": 4435, "\u2581emne": 4436, "\u2581story": 4437, "\u2581views": 4438, "\u2581surface": 4439, "\u2581danske": 4440, "lsen": 4441, "\u2581options": 4442, "\u2581express": 4443, "\u2581temperature": 4444, "\u2581[...]": 4445, "\u2581henviser": 4446, "TM": 4447, "\u2581unto": 4448, "[": 4449, "aw": 4450, "6,": 4451, "\u2581England": 4452, "\u2581combination": 4453, "You": 4454, "\u2581sold": 4455, "6.": 4456, "gel": 4457, "\u2581fe": 4458, "\u2581Back": 4459, "\u2581installation": 4460, "fl": 4461, "\u2581herrer": 4462, "\u258172": 4463, "ager": 4464, "\u2581indf\u00f8re": 4465, "\u2581race": 4466, "har": 4467, "ju": 4468, "\u2581kultur": 4469, "\u2581indt\u00e6gter": 4470, "\u2581Toilet": 4471, "\u2581whereas": 4472, "\u2581usually": 4473, "4/": 4474, "\u2581appear": 4475, "\u2581forbehold": 4476, "\u2581tasks": 4477, "\u2581Tell": 4478, "damer": 4479, "\u258188": 4480, "\u2581Kon": 4481, "\u2581Martin": 4482, "\u2581consideration": 4483, "pper": 4484, "\u2581Bro": 4485, "\u2581husband": 4486, "\u2581Par": 4487, "\u258151": 4488, "\u2581failure": 4489, "\u2581rise": 4490, "7.": 4491, "including": 4492, "\u2581electronic": 4493, "\u2581Belgium": 4494, "ual": 4495, "\u2581orders": 4496, "\u2581toilet": 4497, "\u2581Cas": 4498, "more": 4499, "lande": 4500, "\u2581ju": 4501, "\u2581yde": 4502, "\u2581efficiency": 4503, "\u2581machines": 4504, "\u2581frie": 4505, "ys": 4506, "ech": 4507, "test": 4508, "\u2581regular": 4509, "\u2581fungerer": 4510, "\u00a9": 4511, "\u2581Although": 4512, "work": 4513, "\u2581tyske": 4514, "\u2581Ord": 4515, "serv": 4516, "\u2581eye": 4517, "\u2581Management": 4518, "\u2581Ministers": 4519, "\u2581Product": 4520, "kort": 4521, "\u258178": 4522, "ai": 4523, "lod": 4524, "Ogs\u00e5": 4525, "\u2581Furthermore": 4526, "\u258156": 4527, "cip": 4528, "\u2581schemes": 4529, "house": 4530, "\u2581erhvervs": 4531, "eh": 4532, "ical": 4533, "\u2581mainly": 4534, "NL": 4535, "\u2581udgave": 4536, "\u2581poor": 4537, "back": 4538, "\u2581climate": 4539, "\u2581gl\u00e6der": 4540, "car": 4541, "\u00f8d": 4542, "pen": 4543, "\u2581k\u00f8rer": 4544, "\u25812019": 4545, "\u2581Bath": 4546, "gui": 4547, "sat": 4548, "\u2581materiale": 4549, "IN": 4550, "\u2581l\u00e6gge": 4551, "\u2581bek\u00e6mpelse": 4552, "\u2581kr\u00e6ves": 4553, "hur": 4554, "\u2581Iron": 4555, "bl": 4556, "\u2581stod": 4557, "\u2581400": 4558, "\u2581worry": 4559, "\u2581wall": 4560, "\u2581fisheries": 4561, "\u2581modtager": 4562, "\u2581problemet": 4563, "\u258173": 4564, "\u2581f\u00f8lelse": 4565, "right": 4566, "\u2581kunder": 4567, "\u2581Check": 4568, "\u2581corresponding": 4569, "\u2581direction": 4570, "\u2581medicin": 4571, "\u2581sustainable": 4572, "\u2581indg\u00e5et": 4573, "\u2581direktivet": 4574, "dal": 4575, "stre": 4576, "We": 4577, "ld": 4578, "\u2581democracy": 4579, "fuld": 4580, "mper": 4581, "\u2581Republikken": 4582, "\u2581Make": 4583, "\u2581accordingly": 4584, "\u2581Bru": 4585, "\u2581shot": 4586, "\u2581commitment": 4587, "\u2581engelsk": 4588, "\u2581princippet": 4589, "\u2581flertal": 4590, "\u2581lyder": 4591, "\u2581picture": 4592, "\u258102": 4593, "\u2581ISBN": 4594, "\u2581While": 4595, "ano": 4596, "\u2581ahead": 4597, "\u2581grader": 4598, "\u2581excellent": 4599, "\u2581EFTA": 4600, "\u2581fasts\u00e6tte": 4601, "\u2581medmindre": 4602, "\u2581Li": 4603, "\u00fc": 4604, "\u2581calculated": 4605, "\u2581obligation": 4606, "\u2581write": 4607, "\u2581Most": 4608, "\u2581Energy": 4609, "\u2581lavere": 4610, "\u2581conduct": 4611, "ect": 4612, "\u2581worth": 4613, "\u2581whatever": 4614, "\u2581spiritual": 4615, "\u2581minute": 4616, "\u2581began": 4617, "98": 4618, "\u2581error": 4619, "\u2581resulting": 4620, "\u2581hurtig": 4621, "\u2581identified": 4622, "\u2581contained": 4623, "\u2581behandlet": 4624, "dis": 4625, "\u2581playing": 4626, "\u2581grunde": 4627, "\u2581digital": 4628, "\u2581eftersom": 4629, "\u2581Formanden": 4630, "\u2581tilf\u00e6ldet": 4631, "\u2581manufacturer": 4632, "maskine": 4633, "2002": 4634, "\u2581News": 4635, "\u2581CD": 4636, "\u2581categories": 4637, "\u2581influence": 4638, "\u2581r\u00f8r": 4639, "\u2581Vel": 4640, "\u2581h\u00f8jst": 4641, "\u2581controls": 4642, "\u2581implement": 4643, "\u2581Reference": 4644, "\u2581respekt": 4645, "nen": 4646, "gy": 4647, "kan": 4648, "\u2581community": 4649, "\u2581integrated": 4650, "\u2581\u00d8": 4651, "\u2581ship": 4652, "st\u00f8tte": 4653, "\u2581log": 4654, "\u2581ydes": 4655, "\u2581sometimes": 4656, "\u2581elementer": 4657, "59": 4658, "\u2581systemet": 4659, "\u2581beregnet": 4660, "\u2581Stop": 4661, "\u2581Cha": 4662, "\u2581\u00e5bner": 4663, "\u2581tr\u00e6ffer": 4664, "ec": 4665, "\u2581nemt": 4666, "\u2581afsluttet": 4667, "\u2581piece": 4668, "\u2581Stor": 4669, "\u2581ing": 4670, "\u2581ensuring": 4671, "\u2581pictures": 4672, "\u2581stats": 4673, "wood": 4674, "\u2581scene": 4675, "ost": 4676, "\u2581applying": 4677, "\u2581tr\u00e6ffes": 4678, "\u2581governments": 4679, "\u2581indf\u00f8rt": 4680, "\u2581success": 4681, "ail": 4682, "\u2581legislative": 4683, "far": 4684, "\u2581Shi": 4685, "\u2581Ac": 4686, "\u2581doubt": 4687, "\u2581h\u00f8rte": 4688, "oli": 4689, "\u2581talte": 4690, "Pro": 4691, "\u2581ko": 4692, "\u2581dages": 4693, "\u2581fremmest": 4694, "\u2581sigte": 4695, "\u2581hour": 4696, "\u2581nylig": 4697, "ien": 4698, "\u2581degree": 4699, "\u258154": 4700, "\u2581Adam": 4701, "\u2581bef\u00f8jelser": 4702, "PS": 4703, "\u2581ansigt": 4704, "\u2581solutions": 4705, "tage": 4706, "\u2581generation": 4707, "ised": 4708, "ose": 4709, "\u2581Food": 4710, "ming": 4711, "\u2581ansatte": 4712, "\u2581updated": 4713, "\u2581tests": 4714, "\u2581reducere": 4715, "tv": 4716, "\u2581tilstand": 4717, "General": 4718, "\u2581natur": 4719, "\u2581rettet": 4720, "\u2581pan": 4721, "\u2581Spanish": 4722, "\u2581endda": 4723, "\u2581Help": 4724, "\u2581win": 4725, "\u2581pc": 4726, "\u2581udveksling": 4727, "\u2581functions": 4728, "\u2581S\u00f8g": 4729, "ez": 4730, "\u2581opf\u00f8rt": 4731, "\u2581drink": 4732, "\u2581venstre": 4733, "\u2581Moses": 4734, "\u2581vold": 4735, "\u2581dokument": 4736, "grat": 4737, "ffentligg\u00f8relsen": 4738, "\u2581Republik": 4739, "\u2581venter": 4740, "\u2581fremtidige": 4741, "\u2581derover": 4742, "\u2581claim": 4743, "\u2581sports": 4744, "\u2581glass": 4745, "\u2581registered": 4746, "\u2581forelagt": 4747, "met": 4748, "\u2581download": 4749, "\u2581s\u00e5fremt": 4750, "\u2581informed": 4751, "hy": 4752, "\u2581press": 4753, "bb": 4754, "\u2581virke": 4755, "\u2581agent": 4756, "\u2581typer": 4757, "\u2581sleep": 4758, "\u2581enterprises": 4759, "\u2581Anders": 4760, "iet": 4761, "\u2581stjerner": 4762, "\u2581procent": 4763, "nummer": 4764, "\u258152": 4765, "condition": 4766, "\u2581practices": 4767, "\u2581nogensinde": 4768, "\u00d8": 4769, "\u2581developments": 4770, "\u2581closed": 4771, "\u2581deleted": 4772, "\u2581fordele": 4773, "AR": 4774, "\u2581Today": 4775, "\u2581injection": 4776, "\u2581st\u00f8tten": 4777, "\u2581talt": 4778, "ump": 4779, "\u2581operators": 4780, "\u2581difficulties": 4781, "\u2581l\u00e6": 4782, "\u2581Ltd": 4783, "\u2581Belgien": 4784, "\u2581\u00e6ldre": 4785, "\u2581Pen": 4786, "\u2581levering": 4787, "\u2581f\u00f8devarer": 4788, "\u25819,": 4789, "\u2581ver": 4790, "stjerne": 4791, "\u2581notification": 4792, "ture": 4793, "\u2581Russia": 4794, "\u2581s\u00f8gning": 4795, "\u258120%": 4796, "\u2581Col": 4797, "\u2581warm": 4798, "97": 4799, "sk\u00e6rm": 4800, "\u2581\u00f8jne": 4801, "73": 4802, "rit": 4803, "\u2581lyset": 4804, "\u2581Safety": 4805, "\u2581erkl\u00e6ring": 4806, "\u2581missing": 4807, "\u2581(6)": 4808, "\u2581almindelig": 4809, "Di": 4810, "\u2581oral": 4811, "PT": 4812, "\u2581Many": 4813, "\u2581natten": 4814, "\u2581Pu": 4815, "\u2581dialog": 4816, "\u2581sektorer": 4817, "luck": 4818, "ther": 4819, "\u2581brev": 4820, "\u2581f\u00f8le": 4821, "nakke": 4822, "\u25811982": 4823, "\u2581arbejdstagere": 4824, "\u2581ordf\u00f8reren": 4825, "tive": 4826, "\u2581unique": 4827, "500": 4828, "rie": 4829, "\u2581target": 4830, "sur": 4831, "\u2581Tid": 4832, "SD": 4833, "ball": 4834, "\u2581resten": 4835, "\u2581British": 4836, "politikken": 4837, "\u2581notified": 4838, "cover": 4839, "\u2581standarder": 4840, "\u2581milj\u00f8et": 4841, "\u2581maintenance": 4842, "\u2581syv": 4843, "\u2581kontrollere": 4844, "chi": 4845, "\u2581und": 4846, "\u2581miste": 4847, "set": 4848, "ester": 4849, "l\u00f8se": 4850, "\u2581firms": 4851, "\u2581REGULATION": 4852, "\u2581supported": 4853, "2000": 4854, "ius": 4855, "\u2581Private": 4856, "stat": 4857, "iver": 4858, "\u2581earlier": 4859, "69": 4860, "format": 4861, "stil": 4862, "\u2581kapacitet": 4863, "\u2581entitled": 4864, "anstaltningerne": 4865, "51": 4866, "\u2581sta": 4867, "\u2581glas": 4868, "\u2581vende": 4869, "\u2581stuff": 4870, "\u2581behandles": 4871, "\u2581Mit": 4872, "\u2581rooms": 4873, "\u2581explain": 4874, "\u2581aktiv": 4875, "ses": 4876, "word": 4877, "\u258161": 4878, "\u2581Up": 4879, "\u2581l\u00e6gemidler": 4880, "lar": 4881, "\u2581ka": 4882, "\u2581offered": 4883, "\u2581styre": 4884, "\u2581Ki": 4885, "beskyttelse": 4886, "\u2581sitting": 4887, "\u2581markedsf\u00f8ring": 4888, "\u2581fund": 4889, "ib": 4890, "\u2581Za": 4891, "\u2581EIB": 4892, "\u2581foreligger": 4893, "\u2581tariff": 4894, "\u2581bear": 4895, "\u2581traffic": 4896, "\u2581recently": 4897, "\u2581turned": 4898, "\u2581ideal": 4899, "\u2581Keep": 4900, "lev": 4901, "\u2581Bilag": 4902, "\u2581ge": 4903, "\u2581Standard": 4904, "vers": 4905, "\u2581frugt": 4906, "\u2581\u00f8je": 4907, "\u2581Conference": 4908, "\u2581Start": 4909, "ani": 4910, "\u2581Give": 4911, "\u2581Parties": 4912, "MP": 4913, "\u2581Mere": 4914, "\u2581interne": 4915, "ford": 4916, "\u2581tillid": 4917, "\u2581Bu": 4918, "\u2581lager": 4919, "\u2581Thus": 4920, "42": 4921, "\u2581tonight": 4922, "\u2581klasse": 4923, "\u2581Iran": 4924, "ragende": 4925, "\u25811979": 4926, "\u2581vort": 4927, "\u2581symbol": 4928, "ase": 4929, "67": 4930, "\u2581indeb\u00e6rer": 4931, "\u2581prejudice": 4932, "\u2581cash": 4933, "\u2581vind": 4934, "\u2581waters": 4935, "\u2581centrale": 4936, "oid": 4937, "ata": 4938, "\u2581Rusland": 4939, "\u2581leading": 4940, "\u2581ste": 4941, "\u2581udstedt": 4942, "\u2581stemmer": 4943, "isme": 4944, "\u2581banks": 4945, "\u2581slet": 4946, "\u2581H\u00e5nd": 4947, "\u2581ihjel": 4948, "\u2581sad": 4949, "\u2581moving": 4950, "\u2581conclusions": 4951, "\u2581selvf\u00f8lgelig": 4952, "\u2581cl": 4953, "No": 4954, "\u2581DEN": 4955, "\u2581planning": 4956, "\u2581serve": 4957, "\u2581engine": 4958, "\u2581band": 4959, "\u2581v\u00e6rdier": 4960, "\u2581Kor": 4961, "\u2581observed": 4962, "\u2581TIL": 4963, "hvert": 4964, "ider": 4965, "\u2581length": 4966, "\u2581120": 4967, "\u258153": 4968, "\u2581nation": 4969, "\u2581retten": 4970, "\u2581noted": 4971, "ias": 4972, "\u2581sandsynligvis": 4973, "\u2581flow": 4974, "\u2581Director": 4975, "\u2581ourselves": 4976, "\u2581agriculture": 4977, "\u2581devices": 4978, "sektoren": 4979, "eri": 4980, "\u2581defineret": 4981, "stol": 4982, "\u2581kompetence": 4983, "\u2581enkeltheder": 4984, "\u2581dollars": 4985, "\u2581opn\u00e5et": 4986, "bin": 4987, "\u2581erfaring": 4988, "itet": 4989, "\u2581remains": 4990, "\u2581advantage": 4991, "\u2581Hj\u00e6lp": 4992, "popul\u00e6r": 4993, "\u2581Ukraine": 4994, "\u2581stability": 4995, "gra": 4996, "\u2581entirety": 4997, "\u2581networks": 4998, "ride": 4999, "\u2581addressed": 5000, "\u2581registrering": 5001, "ore": 5002, "huset": 5003, "\u2581green": 5004, "\u2581initiatives": 5005, "\u2581kategori": 5006, "\u2581eligible": 5007, "\u2581Lige": 5008, "\u2581oprettet": 5009, "\u2581Trade": 5010, "\u2581Line": 5011, "ition": 5012, "\u2581Ber": 5013, "\u2581forkert": 5014, "jan": 5015, "du": 5016, "\u2581forget": 5017, "\u2581passer": 5018, "54": 5019, "\u2581sandt": 5020, "\u2581sygdom": 5021, "\u2581powerful": 5022, "\u2581transmission": 5023, "\u2581fedt": 5024, "\u2581Austria": 5025, "\u2581ansvarlige": 5026, "based": 5027, "\u2581exposure": 5028, "\u2581l\u00f8n": 5029, "km": 5030, "\u2581FORORDNING": 5031, "\u2581Pas": 5032, "\u2581tonnes": 5033, "akker": 5034, "\u25815%": 5035, "\u2581Port": 5036, "\u2581generally": 5037, "\u2581farmers": 5038, "\u2581vital": 5039, "\u2581refer": 5040, "\u2581operational": 5041, "agt": 5042, "\u2581opdage": 5043, "\u2581firm": 5044, "plads": 5045, "\u258182": 5046, "\u2581recognition": 5047, "\u2581stigende": 5048, "rem": 5049, "\u2581characteristics": 5050, "\u258174": 5051, "year": 5052, "\u00e6kke": 5053, "TS": 5054, "\u2581indf\u00f8relse": 5055, "\u2581Note": 5056, "ali": 5057, "\u2581quantity": 5058, "88": 5059, "\u00e6k": 5060, "\u2581secure": 5061, "\u2581st\u00e6rk": 5062, "\u2581effektive": 5063, "yr": 5064, "nie": 5065, "ski": 5066, "\u2581tilstr\u00e6kkeligt": 5067, "\u2581discussion": 5068, "\u2581exist": 5069, "\u2581Moreover": 5070, "84": 5071, "\u2581drikke": 5072, "\u2581SA": 5073, "\u2581sister": 5074, "\u2581feeling": 5075, "\u2581UNION": 5076, "\u2581scar": 5077, "/2006": 5078, "\u2581presence": 5079, "\u2581dry": 5080, "bryder": 5081, "\u2581Would": 5082, "gl": 5083, "nis": 5084, "\u00ed": 5085, "ization": 5086, "\u2581touch": 5087, "\u2581station": 5088, "0,": 5089, "dig": 5090, "jek": 5091, "\u2581mellemstore": 5092, "\u2581extended": 5093, "\u2581fortalte": 5094, "\u2581Trans": 5095, "\u2581Test": 5096, "\u2581Sag": 5097, "light": 5098, "ole": 5099, "\u2581fod": 5100, "\u00a5": 5101, "\u2581politikker": 5102, "\u2581le": 5103, "ious": 5104, "\u2581wear": 5105, "\u2581Liv": 5106, "\u2581criminal": 5107, "\u2581fors\u00f8ger": 5108, "\u2581repr\u00e6sentant": 5109, "\u2581favor": 5110, "\u2581periods": 5111, "\u2581mail": 5112, "\u2581fields": 5113, "\u2581(2": 5114, "\u2581waiting": 5115, "ku": 5116, "\u2581muligvis": 5117, "\u2581sur": 5118, "\u2581reporting": 5119, "hl": 5120, "\u25812)": 5121, "\u2581gennemsnitlige": 5122, "\u2581deep": 5123, "nar": 5124, "\u2581James": 5125, "\u2581enige": 5126, "\u2581producer": 5127, "hol": 5128, "\u2581encourage": 5129, "\u2581ta": 5130, "\u2581temperatures": 5131, "\u2581Chi": 5132, "\u2581ans\u00f8gning": 5133, "wel": 5134, "bas": 5135, "\u2581Des": 5136, "\u2581Once": 5137, "\u2581tv": 5138, "\u2581Subject": 5139, "\u2581Law": 5140, "\u2581v\u00e6sentlig": 5141, "\u2581Tru": 5142, "\u2581namely": 5143, "\u258191": 5144, "\u2581screen": 5145, "\u2581Chinese": 5146, "\u25811975": 5147, "89": 5148, "\u2581Sociale": 5149, "ky": 5150, "\u2581obtain": 5151, "rede": 5152, "\u2581Box": 5153, "\u2581tilsyn": 5154, "72": 5155, "\u2581acting": 5156, "\u2581s\u00e5dant": 5157, "\u2581rammer": 5158, "\u2581pull": 5159, "\u258179": 5160, "\u2581vente": 5161, "somr\u00e5det": 5162, "\u2581forhindre": 5163, "\u2581initiativer": 5164, "\u2581trouble": 5165, "\u2581anledning": 5166, "kor": 5167, "\u2581behandlingen": 5168, "\u2581supplement": 5169, "\u2581Association": 5170, "\u2581paragraphs": 5171, "ee": 5172, "\u2581consequences": 5173, "\u2581attack": 5174, "%": 5175, "\u2581producent": 5176, "\u2581restructuring": 5177, "istiske": 5178, "mag": 5179, "\u2581advance": 5180, "\u2581acceptere": 5181, "\u2581spillet": 5182, "\u2581reserve": 5183, ",000": 5184, "\u2581halv": 5185, "\u2581smukke": 5186, "\u2581Uden": 5187, "\u2581systemer": 5188, "\u2581Full": 5189, "\u2581asking": 5190, "\u2581befinde": 5191, "\u2581married": 5192, "rige": 5193, "\u2581Radio": 5194, "\u2581checks": 5195, "\u2581spor": 5196, "\u2581indl\u00e6g": 5197, "\u2581fuel": 5198, "\u2581Fi": 5199, "\u2581Plan": 5200, "\u2581century": 5201, "\u2581emner": 5202, "\u2581suitable": 5203, "\u2581Fu": 5204, "\u258159": 5205, "\u2581l\u00e6rer": 5206, "\u2581hvorvidt": 5207, "\u2581sigt": 5208, "\u2581Michael": 5209, "\u2581mord": 5210, "\u2581neither": 5211, "\u2581raise": 5212, "\u2581daughter": 5213, "\u2581hensyntagen": 5214, "park": 5215, "member": 5216, "ban": 5217, "\u2581Europas": 5218, "Po": 5219, "\u2581bevare": 5220, "\u2581drug": 5221, "\u2581Nations": 5222, "\u2581tools": 5223, "\u2581udstyret": 5224, "\u2581d\u00e6kke": 5225, "\u2581k\u00f8ret\u00f8jer": 5226, "\u2581udf\u00f8res": 5227, "bro": 5228, "\u2581benytter": 5229, "\u2581indg\u00e5r": 5230, "\u2581foresl\u00e5r": 5231, "\u2581beskrevet": 5232, "\u2581window": 5233, "cin": 5234, "\u2581bestemte": 5235, "58": 5236, "dige": 5237, "\u2581Poland": 5238, "\u2581sandheden": 5239, "\u2581vanskeligheder": 5240, "\u2581Sol": 5241, "\u2581Bi": 5242, "\u2581Bil": 5243, "\u2581n\u00f8je": 5244, "\u2581debt": 5245, "oner": 5246, "\u2581tion": 5247, "rate": 5248, "Hvad": 5249, "\u2581mia": 5250, "\u2581tilg\u00e6ngelig": 5251, "\u2581kendte": 5252, "\u2581foot": 5253, "\u2581Rules": 5254, "somr\u00e5de": 5255, "\u2581konto": 5256, "\u2581transit": 5257, "\u2581600": 5258, "\u2581f\u00f8rte": 5259, "\u2581produktions": 5260, "\u2581skab": 5261, "mes": 5262, "\u2581factor": 5263, "71": 5264, "\u2581aktioner": 5265, "\u2581dertil": 5266, "9.": 5267, "\u2581Products": 5268, "\u2581Regulations": 5269, "\u258110,": 5270, "\u2581preparation": 5271, "\u2581falling": 5272, "lock": 5273, "\u2581l\u00e6rt": 5274, "\u2581internet": 5275, "\u2581mus": 5276, "\u2581blue": 5277, "\u2581tr\u00e6kke": 5278, "\u2581AS": 5279, "61": 5280, "\u2581Blue": 5281, "\u2581Bal": 5282, "undtagen": 5283, "\u2581forpligtelse": 5284, "\u2581juridiske": 5285, "\u2581resultatet": 5286, "virus": 5287, "\u2581ed": 5288, "\u2581notes": 5289, "\u2581Street": 5290, "\u2581enighed": 5291, "\u2581Folk": 5292, "\u2581stigning": 5293, "\u2581v\u00e6lger": 5294, "\u2581strength": 5295, "\u2581Gal": 5296, "\u2581zone": 5297, "\u2581cold": 5298, "\u2581N\u00e6ste": 5299, "\u2581tiltr\u00e6delse": 5300, "\u2581produktet": 5301, "\u2581soul": 5302, "\u2581E\u00d8F": 5303, "\u2581Name": 5304, "\u2581indeholde": 5305, "\u2581str": 5306, "\u2581faldt": 5307, "\u2581bal": 5308, "\u2581desire": 5309, "\u2581offentliggjort": 5310, "\u2581sender": 5311, "-4": 5312, "tron": 5313, "ffe": 5314, "8.": 5315, "\u2581centrum": 5316, "\u258181": 5317, "\u2581stede": 5318, "\u2581kaffe": 5319, "\u2581selected": 5320, "gas": 5321, "\u2581Procedure": 5322, "\u2581skrev": 5323, "retten": 5324, "87": 5325, "\u2581differences": 5326, "\u2581l\u00e6gger": 5327, "\u2581stu": 5328, "0.000": 5329, "\u2581formanden": 5330, "\u2581kontor": 5331, "\u2581nedsat": 5332, "\u2581culture": 5333, "not": 5334, "\u2581train": 5335, "\u2581Maria": 5336, "\u2581considers": 5337, "ella": 5338, "\u2581Programme": 5339, "\u2581quota": 5340, "fe": 5341, "\u2581booking": 5342, "\u2581Dag": 5343, "\u2581ofre": 5344, "\u2581konkrete": 5345, "\u2581vilk\u00e5r": 5346, "Very": 5347, "\u2581transactions": 5348, "gle": 5349, "\u2581udviklet": 5350, "\u2581examination": 5351, "\u2581selve": 5352, "\u2581sweet": 5353, "\u2581spring": 5354, "\u2581tydeligt": 5355, "\u2581protokollen": 5356, "\u2581s\u00e6t": 5357, "\u2581th": 5358, "\u2581deraf": 5359, "\u2581pool": 5360, "Con": 5361, "\u2581primary": 5362, "\u2581s\u00e5kaldt": 5363, "\u2581250": 5364, "\u2581mobile": 5365, "\u2581chemical": 5366, "\u2581udf\u00f8rt": 5367, "ology": 5368, "\u2581percentage": 5369, "\u2581ordet": 5370, "\u2581oprette": 5371, "\u2581opfordrer": 5372, "\u2581pr\u00e6cis": 5373, "\u2581samarbejds": 5374, "\u2581vedtage": 5375, "\u2581border": 5376, "\u2581absolut": 5377, "rust": 5378, "\u2581exports": 5379, "\u2581afraid": 5380, "\u2581Cooperation": 5381, "\u2581virksomheden": 5382, "\u25811978": 5383, "\u2581Super": 5384, "\u2581guest": 5385, "\u2581evening": 5386, "\u2581pr\u00e6sident": 5387, "\u2581fase": 5388, "\u2581removed": 5389, "7,": 5390, "danne": 5391, "Be": 5392, "\u2581iron": 5393, "\u2581Black": 5394, "\u00e6tte": 5395, "\u2581inkluderet": 5396, "\u2581reglerne": 5397, "mid": 5398, "\u2581sites": 5399, "\u2581h\u00e5b": 5400, "\u2581CN": 5401, "\u2581Senest": 5402, "\u2581aktuelle": 5403, "\u2581Gar": 5404, "\u258169": 5405, "\u2581ovenn\u00e6vnte": 5406, "\u2581crime": 5407, "\u2581existence": 5408, "jer": 5409, "kl\u00e6der": 5410, "oth": 5411, "IP": 5412, "ct": 5413, "\u2581Ham": 5414, "\u258171": 5415, "sprocessen": 5416, "\u2581himmel": 5417, "\u2581spot": 5418, "\u25811.3.1": 5419, "\u2581complex": 5420, "\u2581understanding": 5421, "ably": 5422, "57": 5423, "\u2581master": 5424, "\u2581sidder": 5425, "\u2581Access": 5426, "\u2581girls": 5427, "\u2581tjene": 5428, "\u2581fix": 5429, "\u2581foreg\u00e5r": 5430, "\u2581parterne": 5431, "\u2581tilpasning": 5432, "systemet": 5433, "selskaber": 5434, "\u2581dre": 5435, "\u2581contributions": 5436, "64": 5437, "\u2581kigge": 5438, "\u2581flat": 5439, "\u2581seek": 5440, "\u2581scan": 5441, "\u2581Royal": 5442, "\u2581Regional": 5443, "-3": 5444, "\u258196": 5445, "ini": 5446, "\u2581hotels": 5447, "dele": 5448, "\u2581temporary": 5449, "\u2581finans": 5450, "ev": 5451, "\u2581gra": 5452, "ound": 5453, "\u2581\u00e6gte": 5454, "enede": 5455, "\u2581Watch": 5456, "\u2581valgt": 5457, "\u258176": 5458, "\u2581experts": 5459, "oplysninger": 5460, "\u2581nem": 5461, "\u2581Tu": 5462, "arter": 5463, "non": 5464, "\u2581requirement": 5465, "\u00e6st": 5466, "disk": 5467, "rin": 5468, "\u2581players": 5469, "allo": 5470, "\u2581Cal": 5471, "\u2581omstrukturering": 5472, "\u2581ansvarlig": 5473, "\u2581informations": 5474, "\u2581sk\u00e6rm": 5475, "\u2581budgettet": 5476, "\u00ae": 5477, "\u2581blomster": 5478, "\u2581figures": 5479, "\u2581hensigt": 5480, "\u2581hoteller": 5481, "\u2581Nothing": 5482, "\u2581maskiner": 5483, "\u2581rejser": 5484, "96": 5485, "\u2581enlargement": 5486, "\u2581conference": 5487, "\u2581efterf\u00f8lgende": 5488, "IF": 5489, "\u2581vocational": 5490, "\u2581tender": 5491, "\u2581aimed": 5492, "\u2581delegation": 5493, "\u2581lie": 5494, "analyse": 5495, "nn": 5496, "\u2581advice": 5497, "\u2581promotion": 5498, "\u2581EP": 5499, "arbejde": 5500, "kontrol": 5501, "\u2581Pal": 5502, "\u2581names": 5503, "\u2581update": 5504, "rad": 5505, "\u2581alvorlig": 5506, "\u2581individuals": 5507, "\u2581sendt": 5508, "\u2581profit": 5509, "\u2581technologies": 5510, "\u2581Mediterranean": 5511, "\u2581teaching": 5512, "\u2581!": 5513, "\u2581Number": 5514, "86": 5515, "pet": 5516, "\u2581cell": 5517, "\u2581sundheds": 5518, "\u2581tons": 5519, "\u2581anerkendelse": 5520, "\u2581Hall": 5521, "\u2581frit": 5522, "\u25811000": 5523, "\u258158": 5524, "\u2581Mad": 5525, "\u2581ondt": 5526, "\u2581purchase": 5527, "\u2581forskel": 5528, "\u2581protokol": 5529, "\u2581calling": 5530, "\u2581privat": 5531, "\u2581dokumentation": 5532, "uit": 5533, "SS": 5534, "\u2581consultation": 5535, "\u2581skrevet": 5536, "\u2581mouth": 5537, "\u2581eventuelt": 5538, "\u2581KOM": 5539, "systemer": 5540, "\u2581creating": 5541, "isse": 5542, "\u2581ben": 5543, "r\u00e5d": 5544, "\u2581Daniel": 5545, "\u2581opm\u00e6rksomhed": 5546, "sol": 5547, "\u2581piger": 5548, "\u2581latter": 5549, "\u2581pu": 5550, "enhed": 5551, "tryk": 5552, "2-": 5553, "\u2581studerende": 5554, "\u2581Boo": 5555, "\u2581v\u00e6rd": 5556, "bri": 5557, "\u2581Fo": 5558, "\u2581arbejdsmarkedet": 5559, "91": 5560, "nor": 5561, "\u2581Father": 5562, "\u2581HERREN": 5563, "\u2581efficient": 5564, "82": 5565, "\u2581ovenfor": 5566, "\u2581Date": 5567, "\u2581hospital": 5568, "\u2581nations": 5569, "\u25811977": 5570, "\u2581agenda": 5571, "\u2581George": 5572, "\u2581dumping": 5573, "\u2581flyve": 5574, "\u2581improvement": 5575, "free": 5576, "\u2581borgerne": 5577, "\u25810.": 5578, "\u2581slut": 5579, "\u2581videnskabelige": 5580, "teret": 5581, "\u2581Fri": 5582, "ear": 5583, "2)": 5584, "\u2581afg\u00f8relser": 5585, "\u2581improving": 5586, "\u2581Produkt": 5587, "\u2581instructions": 5588, "\u2581alder": 5589, "\u2581successful": 5590, "Hvor": 5591, "\u2581Russian": 5592, "omr\u00e5der": 5593, "\u2581anvendte": 5594, "methyl": 5595, "\u2581delivery": 5596, "\u2581forventes": 5597, "\u2581eight": 5598, "\u2581kende": 5599, "cal": 5600, "hr": 5601, "elvf\u00f8lgelig": 5602, "\u00e4": 5603, "\u2581forces": 5604, "\u2581Key": 5605, "\u2581Bor": 5606, "\u2581forbruger": 5607, "\u2581Vand": 5608, "date": 5609, "\u2581Ski": 5610, "t\u00e6l": 5611, "\u2581korn": 5612, "\u2581vedvarende": 5613, "\u2581suspension": 5614, "\u2581F\u00d8LGENDE": 5615, "\u2581comment": 5616, "\u25811.3.": 5617, "\u2581growing": 5618, "vand": 5619, "\u2581families": 5620, "\u2581rural": 5621, "SE": 5622, "\u2581tu": 5623, "\u2581Open": 5624, "\u2581protected": 5625, "\u2581behovet": 5626, "\u2581realize": 5627, "rende": 5628, "kg": 5629, "\u2581aktive": 5630, "rap": 5631, "\u2581datter": 5632, "\u2581cha": 5633, "\u2581Pan": 5634, "\u2581alive": 5635, "\u2581bio": 5636, "t\u00f8rre": 5637, "\u2581selskaber": 5638, "\u2581n\u00e5et": 5639, "col": 5640, "\u2581concept": 5641, "talt": 5642, "\u2581h\u00e5rdt": 5643, "terne": 5644, "\u2581hed": 5645, "\u2581instance": 5646, "It": 5647, "\u2581heat": 5648, "\u2581brugere": 5649, "\u258157": 5650, "zo": 5651, "\u2581flytte": 5652, "\u2581indicate": 5653, "\u2581kunde": 5654, "\u2581compensation": 5655, "\u2581extend": 5656, "lia": 5657, "\u2581midt": 5658, "\u2581Ze": 5659, "\u2581happens": 5660, "\u2581Tra": 5661, "\u2581grounds": 5662, "itz": 5663, "bre": 5664, "\u2581facilitate": 5665, "\u2581traditional": 5666, "\u2581rede": 5667, "ple": 5668, "\u2581normale": 5669, "\u2581strengthen": 5670, "\u2581overstiger": 5671, "syn": 5672, "\u258168": 5673, "European": 5674, "\u2581profe": 5675, "\u2581agency": 5676, "\u2581bortse": 5677, "2001": 5678, "=": 5679, "\u2581markeder": 5680, "\u2581pr\u00e6": 5681, "ado": 5682, "IS": 5683, "\u2581linked": 5684, "\u2581s\u00f8s": 5685, "\u2581selskab": 5686, "\u2581congregation": 5687, "utter": 5688, "\u2581fysisk": 5689, "\u2581selection": 5690, "\u2581Cl": 5691, "isering": 5692, "ants": 5693, "\u2581DA": 5694, "\u2581mid": 5695, "ild": 5696, "\u2581indbyrdes": 5697, "\u2581leaving": 5698, "folk": 5699, "AD": 5700, "\u2581lagt": 5701, "pre": 5702, "\u2581discussed": 5703, "vindue": 5704, "\u2581faktiske": 5705, "\u2581KOMMISSIONEN": 5706, "\u2581strid": 5707, "\u2581removal": 5708, "san": 5709, "\u2581appropriations": 5710, "\u2581Scri": 5711, "Plus": 5712, "ettighederne": 5713, "ika": 5714, "\u2581operator": 5715, "\u2581Mine": 5716, "\u2581destination": 5717, "\u2581s\u00f8d": 5718, "\u2581nedenfor": 5719, "\u2581forekommer": 5720, "uel": 5721, "\u2581britiske": 5722, "\u2581anl\u00e6g": 5723, "cha": 5724, "hvervsuddannelse": 5725, "\u2581confidence": 5726, "\u2581gold": 5727, "ald": 5728, "\u2581Navn": 5729, "\u2581bl\u00e5": 5730, "\u2581VAT": 5731, "\u2581join": 5732, "\u2581pollution": 5733, "\u2581vision": 5734, "\u2581su": 5735, "\u2581tilladt": 5736, "rew": 5737, "\u2581weather": 5738, "\u2581clinical": 5739, "\u2581wrote": 5740, "\u2581bryst": 5741, "\u2581VII": 5742, "\u2581grand": 5743, "idt": 5744, "\u2581besluttet": 5745, "\u258105": 5746, "\u2581skyde": 5747, "\u2581Sara": 5748, "\u2581leje": 5749, "landene": 5750, "\u2581appears": 5751, "\u2581recommendations": 5752, "\u2581udarbejde": 5753, "\u2581stole": 5754, "\u2581\u00e6re": 5755, "\u2581godkendte": 5756, "\u2581session": 5757, "II": 5758, "\u2581m\u00e5der": 5759, "8,": 5760, "\u2581Rome": 5761, "\u2581imposed": 5762, "\u2581drugs": 5763, "chen": 5764, "ration": 5765, "PSE": 5766, "rank": 5767, "\u2581ger": 5768, "\u2581nord": 5769, "\u2581formandskab": 5770, "\u2581Photo": 5771, "\u2581feet": 5772, "\u2581adequate": 5773, "RR": 5774, "\u2581forkerte": 5775, "\u00f8m": 5776, "\u2581dan": 5777, "\u2581scale": 5778, "omr\u00e5de": 5779, "\u2581spread": 5780, "tiden": 5781, "\u2581carrying": 5782, "\u2581drop": 5783, "cia": 5784, "jal": 5785, "\u2581ferie": 5786, "\u2581medf\u00f8rer": 5787, "SA": 5788, "\u2581drenge": 5789, "\u2581dagsordenen": 5790, "\u2581va": 5791, "niveau": 5792, "\u2581angreb": 5793, "ange": 5794, "\u2581voted": 5795, "\u2581starte": 5796, "\u2581committed": 5797, "\u2581quotas": 5798, "\u2581CB": 5799, "\u2581samarbejdet": 5800, "\u2581reality": 5801, "rak": 5802, "\u2581improved": 5803, "\u2581sum": 5804, "\u2581phase": 5805, "\u2581l\u00f8bende": 5806, "\u2581specifically": 5807, "slag": 5808, "0/": 5809, "\u2581Pri": 5810, "atur": 5811, "An": 5812, "IC": 5813, "\u2581Foreign": 5814, "\u2581Thi": 5815, "\u2581tablet": 5816, "sis": 5817, "\u2581adresse": 5818, "\u2581em": 5819, "\u2581Morgen": 5820, "\u2581copy": 5821, "Kommissionen": 5822, "\u2581ana": 5823, "MS": 5824, "\u2581entity": 5825, "\u2581registration": 5826, "uc": 5827, "\u2581LED": 5828, "\u2581showed": 5829, "\u2581valid": 5830, "\u2581charges": 5831, "83": 5832, "\u2581electricity": 5833, "\u2581h\u00f8ring": 5834, "\u2581behandle": 5835, "\u2581combined": 5836, "What": 5837, "\u2581closely": 5838, "\u2581designet": 5839, "ire": 5840, "brug": 5841, "\u2581trin": 5842, "\u2581absence": 5843, "\u2581Nederlandene": 5844, "\u2581lyst": 5845, "\u2581regime": 5846, "\u2581\u03bc": 5847, "screen": 5848, "\u2581lettere": 5849, "\u2581vejledning": 5850, "\u2581faktorer": 5851, "\u2581sport": 5852, "\u2581USD": 5853, "\u2581ryg": 5854, "\u2581promise": 5855, "\u2581politi": 5856, "\u2581pilot": 5857, "\u2581interessant": 5858, "\u2581vedtagelse": 5859, "\u2581stillede": 5860, "\u2581Picture": 5861, "meter": 5862, "\u2581Endvidere": 5863, "\u2581Dublin": 5864, "\u2581kingdom": 5865, "53": 5866, "\u2581till\u00e6g": 5867, "\u2581manufacture": 5868, "\u2581solid": 5869, "ros": 5870, "\u2581reasonable": 5871, "\u2581forudsat": 5872, "try": 5873, "\u2581ri": 5874, "ability": 5875, "\u2581henholdsvis": 5876, "\u2581nationalt": 5877, "\u2581cast": 5878, "\u25812005.": 5879, "speriode": 5880, "\u2581Tr\u00e6": 5881, "To": 5882, "\u2581[2],": 5883, "\u2581innovative": 5884, "\u2581forts\u00e6tter": 5885, "\u2581beliggende": 5886, "\u2581religious": 5887, "\u2581Uanset": 5888, "where": 5889, "\u2581tillader": 5890, "\u2581regulatory": 5891, "\u2581VEDTAGE": 5892, "bet": 5893, "\u258167": 5894, "\u2581processes": 5895, "\u2581Farve": 5896, "\u2581testing": 5897, "\u25814-": 5898, "\u2581prove": 5899, "\u2581Rights": 5900, "\u2581lod": 5901, "ryp": 5902, "\u2581andel": 5903, "\u2581structures": 5904, "\u2581trag": 5905, "\u2581fjerde": 5906, "\u2581poly": 5907, "\u2581kul": 5908, "\u2581bev\u00e6ge": 5909, "\u2581murder": 5910, "\u2581elections": 5911, "\u2581kalder": 5912, "\u2581landbrug": 5913, "\u2581installed": 5914, "kul": 5915, "Al": 5916, "\u2581knyttet": 5917, "\u2581betydelig": 5918, "\u2581kendskab": 5919, "\u2581resultere": 5920, "\u2581speaking": 5921, "PC": 5922, "win": 5923, "\u2581Control": 5924, "\u2581d\u00e6kker": 5925, "shi": 5926, "\":": 5927, "\u2581claims": 5928, "\u2581priorities": 5929, "uri": 5930, "\u258163": 5931, "\u2581vedtages": 5932, "\u2581l\u00f8sninger": 5933, "\u2581receiving": 5934, "\u2581transparency": 5935, "\u2581gun": 5936, "pl": 5937, "ami": 5938, "nings": 5939, "\u2581concentration": 5940, "\u2581conflict": 5941, "\u2581Forslag": 5942, "\u2581emergency": 5943, "asse": 5944, "\u2581deliver": 5945, "\u2581produktionen": 5946, "cent": 5947, "\u2581Schengen": 5948, "\u25a0": 5949, "\u2581fokusere": 5950, "ull": 5951, "\u2581bivirkninger": 5952, "\u2581korrekte": 5953, "\u2581risici": 5954, "\u2581tabel": 5955, "\u2581telling": 5956, "................": 5957, "udvikling": 5958, "\u2581confirmed": 5959, "DF": 5960, "\u2581spent": 5961, "\u2581distance": 5962, "\u2581Sub": 5963, "\u2581handlinger": 5964, "\u2581facts": 5965, "\u2581helhed": 5966, "rup": 5967, "/2005": 5968, "\u2581t\u00f8j": 5969, "\u2581sk\u00f8n": 5970, "\u2581sal": 5971, "-6": 5972, "\u2581n\u00f8d": 5973, "data": 5974, "ather": 5975, "\u2581spore": 5976, "igh": 5977, "\u2581ban": 5978, "\u2581failed": 5979, "\u2581Grand": 5980, "\u2581Sport": 5981, "\u2581adf\u00e6rd": 5982, "pot": 5983, "\u2581V\u00e6lg": 5984, "\u2581Mer": 5985, "tale": 5986, "\u2581Ros": 5987, "\u2581customer": 5988, "63": 5989, "\u2581Bur": 5990, "markedet": 5991, "\u2581yder": 5992, "\u2581feature": 5993, "\u2581seat": 5994, "\u2581links": 5995, "matic": 5996, "\u2581krise": 5997, "\u2581guld": 5998, "\u2581id\u00e9": 5999, "pris": 6000, "-2-": 6001, "\u2581interesting": 6002, "\u2581occur": 6003, "\u2581positions": 6004, "\u2581Jesu": 6005, "\u00f8st": 6006, "stant": 6007, "Article": 6008, "\u2581automatically": 6009, "\u2581syd": 6010, "\u2581s\u00f8": 6011, "\u2581h\u00e6r": 6012, "\u2581(7)": 6013, "\u2581che": 6014, "-10": 6015, "oke": 6016, "\u2581diameter": 6017, "behandling": 6018, "\u2581learning": 6019, "\u2581markeds": 6020, "\u2581Video": 6021, "g\u00e5rd": 6022, "vig": 6023, "\u2581COMMUNITIES": 6024, "\u2581shares": 6025, "tik": 6026, "kin": 6027, "\u2581krop": 6028, "\u2581vegetables": 6029, "\u2581provisional": 6030, "\u2581businesses": 6031, "\u2581pr\u00e6cist": 6032, "m\u00e6ssige": 6033, "\u2581parti": 6034, "\u2581exporting": 6035, "\u2581sten": 6036, "\u2581Ap": 6037, "\u2581controlled": 6038, "\u2581sikring": 6039, "\u2581regel": 6040, "\u2581straight": 6041, "\u2581Also": 6042, "\u2581organizations": 6043, "\u2581violence": 6044, "\u2581fellow": 6045, "\u2581gemme": 6046, "\u2581besked": 6047, "\u2581importen": 6048, "\u2581beretning": 6049, "tant": 6050, "\u2581ideas": 6051, "74": 6052, "lys": 6053, "some": 6054, "\u2581ru": 6055, "\u2581hate": 6056, "\u25811976": 6057, "94": 6058, "cre": 6059, "TI": 6060, "\u2581slutningen": 6061, "\u2581l\u00f8b": 6062, "\u2581F\u00f8lgende": 6063, "\u2581K\u00f8benhavn": 6064, "SI": 6065, "\u2581Lufthavn": 6066, "ense": 6067, "\u2581trading": 6068, "\u2581F\u00f8rste": 6069, "\u2581Shu": 6070, "AN": 6071, "\u2581conditioning": 6072, "\u2581Store": 6073, "\u2581involving": 6074, "\u2581Malta": 6075, "\u2581Kat": 6076, "\u2581pres": 6077, "\u2581seed": 6078, "\u2581India": 6079, "\u2581mention": 6080, "\u2581BE": 6081, "\u2581refers": 6082, "\u2581f\u00f8rt": 6083, "\u2581happening": 6084, "CE": 6085, "\u2581seconds": 6086, "EG": 6087, "IL": 6088, "\u2581justice": 6089, "\u2581revenue": 6090, "\u2581Action": 6091, "ith": 6092, "\u2581\u00d8strig": 6093, "\u2581indk\u00f8b": 6094, "\u2581Channel": 6095, "\u2581supporting": 6096, "\u2581markedsordning": 6097, "\u2581familien": 6098, "\u2581WTO": 6099, "\u2581competitive": 6100, "\u2581adjustment": 6101, "Ud": 6102, "\u2581herfra": 6103, "ava": 6104, "\u2581effectively": 6105, "\u2581style": 6106, "\u2581considerable": 6107, "\u2581---": 6108, "\u2581evaluering": 6109, "\u2581ordrer": 6110, "\u2581besluttede": 6111, "\u2581Spi": 6112, "tain": 6113, "\u2581fremsat": 6114, "ologi": 6115, "\u2581RT": 6116, "\u2581rig": 6117, "dding": 6118, "lim": 6119, "\u25811.4.": 6120, "\u258198": 6121, "\u2581tider": 6122, "\u2581F\u00c6LLESSKABER": 6123, "\u2581highest": 6124, "ingen": 6125, "\u2581Bra": 6126, "vor": 6127, "anmeldelse": 6128, "\u2581refund": 6129, "\u2581books": 6130, "\u2581specifikationer": 6131, "inde": 6132, "\u2581(0)": 6133, "1999": 6134, "\u258108": 6135, "herunder": 6136, "\u2581appeal": 6137, "\u00b7": 6138, "\u2581declared": 6139, "\u2581ydelser": 6140, "\u2581bek\u00e6mpe": 6141, "\u2581aircraft": 6142, "\u2581valgte": 6143, "\u2581licence": 6144, "\u2581beklager": 6145, "pel": 6146, "\u2581fell": 6147, "\u2581huge": 6148, "ico": 6149, "\u2581finance": 6150, "\u2581opst\u00e5r": 6151, "\u2581mulig": 6152, "sdag": 6153, "\u258162": 6154, "\u2581Opinion": 6155, "\u2581represent": 6156, "rik": 6157, "\u2581b\u00e6redygtig": 6158, "\u2581rain": 6159, "\u2581skills": 6160, "\u2581alvorligt": 6161, "\u2581funktionsm\u00e5de": 6162, "\u2581reply": 6163, "\u2581platform": 6164, "\u2581lange": 6165, "\u2581dam": 6166, "ches": 6167, "\u2581voting": 6168, "ife": 6169, "\u2581cells": 6170, "\u2581fan": 6171, "\u2581Wa": 6172, "\u2581fin": 6173, "ions": 6174, "\u2581eksportere": 6175, "produktion": 6176, "\u2581indf\u00f8rsel": 6177, "\u2581cool": 6178, "\u258189": 6179, "\u2581Island": 6180, "\u2581Mege": 6181, "\u2581command": 6182, "\u2581ligner": 6183, "\u2581farm": 6184, "\u2581commitments": 6185, "BI": 6186, "\u2581performed": 6187, "RO": 6188, "iel": 6189, "\u2581Top": 6190, "\u2581Public": 6191, "\u2581recorded": 6192, "\u2581connected": 6193, "\u2581delay": 6194, "\u2581bevis": 6195, "lotte": 6196, "\u2581luftfarts": 6197, "\u2581auto": 6198, "\u2581begr\u00e6nse": 6199, "\u2581forretnings": 6200, "\u2581infrastruktur": 6201, "\u2581mund": 6202, "landbrugspolitik": 6203, "\u25812006.": 6204, "\u2581Udvikling": 6205, "\u2581input": 6206, "\u2581fasts\u00e6tter": 6207, "\u2581vinde": 6208, "\u2581tanker": 6209, "\u2581raw": 6210, "\u2581Sp\u00f8rgsm\u00e5l": 6211, "\u2581l\u00e6ser": 6212, "\u2581severe": 6213, "\u2581restrictions": 6214, "\u2581specifications": 6215, "\u2581fjernelse": 6216, "ped": 6217, "ins": 6218, "\u2581demokrati": 6219, "\u2581vurdere": 6220, "\u2581effektivitet": 6221, "\u2581skov": 6222, "ique": 6223, "\u2581stiller": 6224, "ara": 6225, "dt": 6226, "\u2581mutual": 6227, "\u2581Retten": 6228, "\u2581dealing": 6229, "\u2581inspection": 6230, "\u2581advanced": 6231, "\u2581bidrager": 6232, "\u2581beviser": 6233, "\u2581availability": 6234, "\u2581rapporter": 6235, "\u2581dark": 6236, "\u2581entities": 6237, "elser": 6238, "\u2581Agriculture": 6239, "OP": 6240, "\u2581boys": 6241, "europa": 6242, "\u2581catch": 6243, "\u2581helped": 6244, "\u2581mente": 6245, "bil": 6246, "\u2581lytte": 6247, "\u2581jern": 6248, "rive": 6249, "\u2581standing": 6250, "\u2581nyde": 6251, "\u2581technological": 6252, "cher": 6253, "stra": 6254, "\u2581linje": 6255, "\u2581forkynde": 6256, "\u2581f\u00f8devare": 6257, "\u2581Qu": 6258, "Feature": 6259, "\u2581jernbane": 6260, "\u2581Fader": 6261, "\u2581Question": 6262, "\u2581substantial": 6263, "\u2581capable": 6264, "udstyr": 6265, "\u2581opst\u00e5": 6266, "\u2581Ri": 6267, "\u2581offering": 6268, "\u2581ordningen": 6269, "\u2581situations": 6270, "\u2581medf\u00f8re": 6271, "\u2581muligheden": 6272, "\u2581Ger": 6273, "\u2581approximately": 6274, "\u2581prison": 6275, "\u2581ob": 6276, "\u2581equipped": 6277, "\u2581fisk": 6278, "\u2581Vo": 6279, "maske": 6280, "\u2581sir": 6281, "elsen": 6282, "\u2581starten": 6283, "\u2581stocks": 6284, "\u2581bjerg": 6285, "\u2581Rest": 6286, "\u2581grow": 6287, "\u2581south": 6288, "\u2581pure": 6289, "\u2581Hoved": 6290, "service": 6291, "\u2581Games": 6292, "\u2581fi": 6293, "\u00e6ng": 6294, "imo": 6295, "\u2581appearance": 6296, "cm": 6297, "\u2581eksterne": 6298, "\u2581constitute": 6299, "\u2581vanskeligt": 6300, "\u2581appointed": 6301, "\u2581oven": 6302, "\u2581database": 6303, "\u2581dream": 6304, "\u2581Vol": 6305, "IA": 6306, "\u2581sekunder": 6307, "\u2581meant": 6308, "\u258194": 6309, "\u2581Hair": 6310, "\u2581kr\u00e6ve": 6311, "tog": 6312, "levelse": 6313, "\u2581F\u00f8rst": 6314, "\u2581micro": 6315, "\u2581undervisning": 6316, "\u2581duration": 6317, "\u2581Lisbon": 6318, "\u2581Mel": 6319, "fulde": 6320, "hal": 6321, "\u2581Ob": 6322, "\u2581SEK": 6323, "\u2581allocated": 6324, "ings": 6325, "hop": 6326, "iah": 6327, "\u2581worship": 6328, "\u2581minde": 6329, "\u2581indholdet": 6330, "\u2581sample": 6331, "\u2581Protection": 6332, "\u2581sight": 6333, "\u2581challenge": 6334, "menu": 6335, "~": 6336, "\u2581foreliggende": 6337, "tab": 6338, "\u2581tilh\u00f8rer": 6339, "\u2581middel": 6340, "\u2581everybody": 6341, "\u2581textile": 6342, "\u2581Main": 6343, "\u2581befolkning": 6344, "\u2581Roman": 6345, "him": 6346, "\u2581aims": 6347, "\u258197": 6348, "\u2581requests": 6349, "\u2581Federal": 6350, "\u2581samh\u00f8righed": 6351, "\u2581otte": 6352, "\u2581aktion": 6353, "\u2581livs": 6354, "\u2581Nielsen": 6355, "Pa": 6356, "\u2581yderst": 6357, "\u2581Fl": 6358, "ood": 6359, "\u2581assist": 6360, "\u2581fors\u00f8ge": 6361, "\u2581anmoder": 6362, "inter": 6363, "industrien": 6364, "\u2581forsikrings": 6365, "\u2581oplysningerne": 6366, "lam": 6367, "\u2581moved": 6368, "\u2581rid": 6369, "\u2581rich": 6370, "iff": 6371, "\u2581driving": 6372, "\u2581Nordic": 6373, "ping": 6374, "IM": 6375, "varer": 6376, "\u2581beslutningen": 6377, "\u2581contrary": 6378, "\u2581Work": 6379, "\u2581F\u00f8r": 6380, "\u2581passed": 6381, "v\u00e6lg": 6382, "\u2581Customs": 6383, "\u2581Storbritannien": 6384, "\u2581secret": 6385, "\u2581Wal": 6386, "\u2581landene": 6387, "\u2581agents": 6388, "\u2581modified": 6389, "\u2581praktisk": 6390, "\u2581tillade": 6391, "\u2581Us": 6392, "\u2581impossible": 6393, "dar": 6394, "\u2581hang": 6395, "\u2581programs": 6396, "artikel": 6397, "NI": 6398, "\u2581Polen": 6399, "\u2581cohesion": 6400, "\u2581transaktioner": 6401, "\u2581Environment": 6402, "\u2581finished": 6403, "\u2581Carl": 6404, "\u258104": 6405, "\u2581finansiel": 6406, "\u2581sets": 6407, "\u2581Without": 6408, "\u2581overveje": 6409, "\u2581regeringer": 6410, "\u2581Low": 6411, "\u2581drage": 6412, "\u2581anderledes": 6413, "sti": 6414, "\u2581\u00e5bnes": 6415, "\u2581planer": 6416, "\u2581vedtagelsen": 6417, "\u2581frequency": 6418, "ija": 6419, "\u2581kombination": 6420, "\u2581properly": 6421, "ram": 6422, "\u2581investments": 6423, "\u2581Gard": 6424, "\u2581svarende": 6425, "\u2581Pol": 6426, "fort": 6427, "\u2581Title": 6428, "\u2581forhandlingerne": 6429, "\u25811970": 6430, "\u2581therapy": 6431, "eva": 6432, "\u2581PE": 6433, "\u2581accommodation": 6434, "\u2581Regionsudvalget": 6435, "\u2581udseende": 6436, "://": 6437, "\u2581h\u00f8jeste": 6438, "\u2581imported": 6439, "Se": 6440, "\u2581gavn": 6441, "\u2581Another": 6442, "\u2581spend": 6443, "\u2581Life": 6444, "\u2581Christmas": 6445, "\u2581determining": 6446, "\u2581pl": 6447, ".2": 6448, "\u2581d\u00e5rligt": 6449, "l\u00f8s": 6450, "\u2581Syn": 6451, "\u2581kunst": 6452, "\u2581Paper": 6453, "kl": 6454, "\u2581granting": 6455, "\u2581italienske": 6456, "\u2581m\u00f8dt": 6457, "\u2581li": 6458, "\u2581agencies": 6459, "\u2581Dis": 6460, "down": 6461, "fan": 6462, "\u2581brugte": 6463, "\u2581Family": 6464, "DR": 6465, "\u2581classified": 6466, "\u2581licences": 6467, "\u2581Afghanistan": 6468, "\u2581Year": 6469, "\u2581Beskrivelse": 6470, "\u2581identify": 6471, "\u2581naturlige": 6472, "\u2581pages": 6473, "\u2581S\u00f8n": 6474, "\u2581hente": 6475, "dagen": 6476, "dry": 6477, "\u2581ISO": 6478, "\u2581menneskelige": 6479, "\u2581hurtigere": 6480, "b\u00e5nd": 6481, "\u2581anmode": 6482, "\u2581African": 6483, "\u2581cancer": 6484, "\u2581indg\u00e5": 6485, "AP": 6486, "\u2581arms": 6487, "mil": 6488, "\u2581despite": 6489, "\u2581positiv": 6490, "\u2581trial": 6491, "\u2581conducted": 6492, "0,000": 6493, "\u2581participate": 6494, "\u2581Rig": 6495, "phi": 6496, "\u2581understrege": 6497, "esse": 6498, "l\u00f8g": 6499, "\u2581Functioning": 6500, "ult": 6501, "\u2581compromise": 6502, "\u258107": 6503, "sprocedure": 6504, "head": 6505, "\u2581publish": 6506, "oy": 6507, "\u2581north": 6508, "\u2581planned": 6509, "ola": 6510, "\u2581thousands": 6511, "EUR": 6512, "\u2581eder": 6513, "\u2581perform": 6514, "\u2581repr\u00e6senterer": 6515, "\u2581illegal": 6516, "chel": 6517, "\u2581absolutely": 6518, "\u2581genstand": 6519, "\u2581statistical": 6520, "\u25812020": 6521, "avi": 6522, "\u2581k\u00f8b": 6523, "\u2581Norge": 6524, "\u2581multiple": 6525, "\u2581v\u00e6sentligt": 6526, "rat": 6527, "\u2581challenges": 6528, "\u258111,": 6529, "\u2581svin": 6530, "\u2581bekendt": 6531, "\u2581levere": 6532, "\u2581konsekvenser": 6533, "\u2581hav": 6534, "\u2581indirekte": 6535, "sikkerhed": 6536, "\u2581memory": 6537, "\u2581totally": 6538, "\u2581demokratiske": 6539, "ura": 6540, "\u2581loan": 6541, "\u2581suggest": 6542, "eligt": 6543, "\u2581datoen": 6544, "grad": 6545, "\u2581Hjem": 6546, "\u2581udvide": 6547, "\u2581indgivet": 6548, "\u2581looked": 6549, "\u2581formal": 6550, "\u2581Czech": 6551, "\u2581Kong": 6552, "\u2581summer": 6553, "\u2581registreret": 6554, "Co": 6555, "\u2581genuine": 6556, "\u2581promoting": 6557, "\u2581Proposal": 6558, "\u2581velkommen": 6559, "\u2581Jorden": 6560, "\u2581hyper": 6561, "\u2581betaler": 6562, "\u2581overf\u00f8rsel": 6563, "\u2581vejr": 6564, "\u2581plasma": 6565, "\u2581Mu": 6566, "\u2581Siden": 6567, "\u2581evne": 6568, "\u2581gr\u00e6ske": 6569, "fald": 6570, "\u2581allowing": 6571, "\u2581konventionen": 6572, "rent": 6573, "\u2581Miss": 6574, "\u2581blind": 6575, "\u2581closer": 6576, "\u2581middle": 6577, "\u2581udtalelser": 6578, "\u2581uniform": 6579, "hil": 6580, "\u2581125": 6581, "\u2581forklare": 6582, "\u2581Gem": 6583, "\u2581Ke": 6584, "\u2581erfaringer": 6585, "\u2581SMEs": 6586, "\u2581kar": 6587, "dok": 6588, "\u2581argument": 6589, "\u2581sick": 6590, "\u2581unders\u00f8gelsen": 6591, "ral": 6592, "\u2581planter": 6593, "\u2581ur": 6594, "\u2581Robert": 6595, "\u2581proof": 6596, "ria": 6597, "\u2581covering": 6598, "sson": 6599, "\u2581Last": 6600, "\u2581discussions": 6601, "\u2581skriver": 6602, "\u2581Ark": 6603, "\u2581heavy": 6604, "\u2581vid": 6605, "\u2581witness": 6606, "\u2581foreg\u00e5ende": 6607, "\u2581science": 6608, "\u2581symptoms": 6609, "\u2581Day": 6610, "programmer": 6611, "\u2581[3]": 6612, "\u2581accompanied": 6613, "\u2581Reg": 6614, "\u2581images": 6615, "\u2581hereby": 6616, "\u2581shoot": 6617, "\u2581hovedet": 6618, "\u2581vedligeholdelse": 6619, "well": 6620, "\u2581Amendment": 6621, "\u258199": 6622, "\u2581VIII": 6623, "\u2581Mod": 6624, "\u2581virkeligheden": 6625, "nr": 6626, "\u2581kn\u00e6": 6627, "rim": 6628, "\u2581midlertidig": 6629, "\u2581ung": 6630, "\u2581henseende": 6631, "\u2581easier": 6632, "\u2581sygdomme": 6633, "\u2581coffee": 6634, "su": 6635, "\u25812007.": 6636, "\u2581etableret": 6637, "\u2581Heat": 6638, "\u2581indf\u00f8res": 6639, "\u2581ID": 6640, "\u2581immediate": 6641, "\u2581count": 6642, "\u258130%": 6643, "\u2581forst\u00e5else": 6644, "\u2581GmbH": 6645, "maskiner": 6646, "\u2581\u00e5ben": 6647, "\u2581lufthavn": 6648, "\u2581institutional": 6649, "\u2581opleve": 6650, "rummet": 6651, "\u2581http": 6652, "lid": 6653, "\u2581broken": 6654, "hor": 6655, "\u2581Stater": 6656, "alog": 6657, "\u2581hearing": 6658, "\u2581finish": 6659, "\u2581interpretation": 6660, "l\u00e6": 6661, "\u2581ordninger": 6662, "\u2581dollar": 6663, "rag": 6664, "\u2581aluminium": 6665, "\u2581AT": 6666, "\u2581juridisk": 6667, "\u2581Church": 6668, "zi": 6669, "\u2581keeping": 6670, "\u2581slette": 6671, "\u2581individuelle": 6672, "\u2581background": 6673, "\u2581LORD": 6674, "\u25a1": 6675, "ement": 6676, "\u2581sp\u00f8rger": 6677, "stilling": 6678, "\u2581Ann": 6679, "\u2581forordningen": 6680, "\u2581konklusioner": 6681, "\u2581forbrug": 6682, "\u2581arbejdspladser": 6683, "Ja": 6684, "\u2581Services": 6685, "\u2581udgangen": 6686, "AG": 6687, "\u2581hellige": 6688, "\u2581afstemning": 6689, "\u2581compatible": 6690, "\u2581bev\u00e6gelighed": 6691, "\u2581shared": 6692, "\u2581ON": 6693, "fu": 6694, "\u2581KN": 6695, "\u2581miss": 6696, "\u2581governing": 6697, "\u2581forbud": 6698, "\u2581udbud": 6699, "asy": 6700, "\u2581residence": 6701, "\u2581sides": 6702, "\u2581lede": 6703, "\u2581mental": 6704, "\u2581tr\u00e6k": 6705, "fredsstillende": 6706, "\u2581utrolig": 6707, "\u2581youth": 6708, "\u2581conformity": 6709, "\u2581ydet": 6710, "\u2581continuing": 6711, "\u2581Tilbage": 6712, "\u2581bred": 6713, "\u2581Cyprus": 6714, "\u2581Put": 6715, "\u2581130": 6716, "\u2581(2),": 6717, "\u2581intra": 6718, "\u2581Jean": 6719, "jord": 6720, "\u2581bygger": 6721, "\u2581Varme": 6722, "\u2581opl\u00f8sning": 6723, "\u2581guarantees": 6724, "\u2581outcome": 6725, "\u2581Which": 6726, "\u2581alfa": 6727, "\u2581fransk": 6728, "\u2581formats": 6729, "avir": 6730, "\u2581Master": 6731, "\u2581RE": 6732, "pos": 6733, "\u2581threat": 6734, "\u2581\u00e5rsager": 6735, "\u2581g\u00e6ste": 6736, "\u2581kommunikation": 6737, "\u2581samling": 6738, "VI": 6739, "ati": 6740, "rest": 6741, "\u2581prevention": 6742, "\u2581sl\u00e5r": 6743, "\u2581kode": 6744, "vald": 6745, "\u2581flight": 6746, "\u2581Mexico": 6747, "\u2581vandre": 6748, "\u2581]": 6749, "\u2581bruse": 6750, "\u258112,": 6751, "\u2581Review": 6752, "\u2581(1),": 6753, "\u2581Gruppe": 6754, "\u2581slog": 6755, "glas": 6756, "\u2581medlemsstats": 6757, "\u2581Education": 6758, "\u2581Stra": 6759, "\u2581overs\u00e6ttelse": 6760, "gulv": 6761, "62": 6762, "\u2581Lin": 6763, "\u2581rating": 6764, "\u2581optagelse": 6765, "\u2581showing": 6766, "\u2581exception": 6767, "\u2581afholdt": 6768, "\u2581navnet": 6769, "\u258106": 6770, "\u2581stilles": 6771, "papir": 6772, "\u2581Market": 6773, "sag": 6774, "This": 6775, "\u2581ben\u00e6vnt": 6776, "\u2581(3": 6777, "\u2581vessel": 6778, "\u2581identification": 6779, "\u2581TR": 6780, "\u2581politiet": 6781, "\u2581weapons": 6782, "st\u00e5ende": 6783, "\u2581repair": 6784, "\u2581Press": 6785, "\u2581foder": 6786, "\u2581mechanism": 6787, "\u2581risikoen": 6788, "iger": 6789, "\u2581character": 6790, "\u2581victims": 6791, "\u2581tilf\u00f8je": 6792, "\u25811%": 6793, "\u2581lykke": 6794, "\u2581kitchen": 6795, "\u2581played": 6796, "\u2581gain": 6797, "\u2581globale": 6798, "-5": 6799, "\u2581tablets": 6800, "\u2581combat": 6801, "\u2581Lot": 6802, "\u2581videnskab": 6803, "dam": 6804, "\u2581Three": 6805, "\u2581Bon": 6806, "\u2581\u00e6ndrede": 6807, "r\u00e6kke": 6808, "\u2581l\u00e6st": 6809, "\u2581minister": 6810, "\u25812004.": 6811, "\u2581helps": 6812, "\u2581speech": 6813, "\u2581tryk": 6814, "\u2581bestr\u00e6belser": 6815, "\u2581Center": 6816, "\u2581reducing": 6817, "\u2581ning": 6818, "aid": 6819, "\u2581medicine": 6820, "\u2581udnytte": 6821, "\u2581tr\u00e6ning": 6822, "92": 6823, "\u2581becomes": 6824, "\u2581Thomas": 6825, "\u2581veterinary": 6826, "\u2581best\u00e5ende": 6827, "\u2581skaffe": 6828, "\u2581studere": 6829, "\u258113,": 6830, "\u2581kategorier": 6831, "\u2581Ret": 6832, "\u2581betydelige": 6833, "\u2581accident": 6834, "\u2581acceptable": 6835, "\u2581Lissabon": 6836, "\u2581Stockholm": 6837, "jf": 6838, "\u2581pas": 6839, "\u2581Place": 6840, "\u2581suffering": 6841, "\u2581becoming": 6842, "\u2581Norway": 6843, "\u2581arter": 6844, "\u2581klima": 6845, "\u2581presse": 6846, "52": 6847, "\u2581v\u00e6g": 6848, "\u2581ledelse": 6849, "ML": 6850, "\u2581disposal": 6851, "\u2581medarbejdere": 6852, "los": 6853, "\u2581Design": 6854, "\u2581greatest": 6855, "\u2581H\u00e5r": 6856, "\u2581Mand": 6857, "\u2581preparations": 6858, "\u2581bekymring": 6859, "\u2581quick": 6860, "ulate": 6861, "100": 6862, "\u2581defence": 6863, "\u2581alarm": 6864, "\u2581vaske": 6865, "ites": 6866, "\u2581von": 6867, "\u2581skifte": 6868, "\u2581fixing": 6869, "\u2581Telefon": 6870, "\u2581display": 6871, "\u2581tilbyde": 6872, "\u2581tilpasse": 6873, "max": 6874, "\u2581prepare": 6875, "\u2581reaktion": 6876, "\u00f8b": 6877, "\u2581seeing": 6878, "\u2581bringing": 6879, "UI": 6880, "\u2581Mil": 6881, "\u2581sinde": 6882, "\u2581monitor": 6883, "din": 6884, "itt": 6885, "\u2581Madrid": 6886, "\u2581overholdelse": 6887, "field": 6888, "\u2581cities": 6889, "\u2581voksne": 6890, "\u2581score": 6891, "ante": 6892, "\u25811973": 6893, "fen": 6894, "\u2581Samtidig": 6895, "\u25812008.": 6896, "\u2581Ku": 6897, "g\u00e5ende": 6898, "\u2581disorders": 6899, "\u2581sw": 6900, "\u2581Ah": 6901, "\u2581rod": 6902, "\u2581ejendom": 6903, "\u2581betydeligt": 6904, "\u2581dance": 6905, "\u2581k\u00f8kken": 6906, "\u2581d\u00f8ren": 6907, "\u2581CON": 6908, "\u2581examined": 6909, "\u2581udsat": 6910, "\u2581Kosovo": 6911, "\u2581Au": 6912, "\u2581ton": 6913, "related": 6914, "\u2581\u00f8": 6915, "ON": 6916, "ott": 6917, "sind": 6918, "\u2581derogation": 6919, "\u2581comprehensive": 6920, "\u2581putting": 6921, "tere": 6922, "\u2581forsknings": 6923, "\u2581im": 6924, "nic": 6925, "nia": 6926, "\u2581opposition": 6927, "\u2581ab": 6928, "rn": 6929, "\u2581overalt": 6930, "hand": 6931, "point": 6932, "have": 6933, "\u2581havet": 6934, "\u2581kontrakt": 6935, "\u2581respectively": 6936, "t\u00f8r": 6937, "\u2581classification": 6938, "\u2581helbred": 6939, "\u25813)": 6940, "\u2581competitiveness": 6941, "kanaler": 6942, "\u2581Earth": 6943, "\u2581overhovedet": 6944, "\u2581estimated": 6945, "\u2581church": 6946, "erings": 6947, "\u2581regeringen": 6948, "wo": 6949, "\u2581sexual": 6950, "cript": 6951, "\u2581integreret": 6952, "\u2581sv\u00e6r": 6953, "\u2581worst": 6954, "\u2581brain": 6955, "\u2581Kit": 6956, "\u2581answers": 6957, "kat": 6958, "\u2581Hol": 6959, "\u2581smag": 6960, "\u2581Spa": 6961, "\u2581Afrika": 6962, "\u2581Hi": 6963, "\u2581qualified": 6964, "\u2581broad": 6965, "\u2581mini": 6966, "\u2581recognised": 6967, "\u2581rev": 6968, "tech": 6969, "\u2581remaining": 6970, "\u2581weak": 6971, "\u2581Hvorn\u00e5r": 6972, "\u2581player": 6973, "ala": 6974, "\u2581forskelle": 6975, "\u2581foresl\u00e5et": 6976, "2005": 6977, "\u2581EUROPA": 6978, "\u2581involveret": 6979, "\u2581worse": 6980, "grave": 6981, "\u2581patent": 6982, "ville": 6983, "ular": 6984, "\u2581employed": 6985, "\u2581camp": 6986, "\u2581alkohol": 6987, "pho": 6988, "\u2581Milj\u00f8": 6989, "\u2581appreciate": 6990, "\u2581brothers": 6991, "information": 6992, "\u2581gennemsnit": 6993, "\u2581Egypt": 6994, "\u2581installere": 6995, "\u2581recover": 6996, "\u2581forel\u00e6gge": 6997, "\u258166": 6998, "TA": 6999, "\u2581Fly": 7000, "ery": 7001, "\u2581NT": 7002, "\u2581v\u00e6rst": 7003, "cel": 7004, "place": 7005, "\u2581si": 7006, "run": 7007, "neskerettigheder": 7008, "\u2581OM": 7009, "\u2581m\u00f8det": 7010, "\u2581Could": 7011, "\u2581Flat": 7012, "\u2581oph\u00e6velse": 7013, "band": 7014, "stid": 7015, "PI": 7016, "\u2581injektion": 7017, "\u2581Multi": 7018, "\u2581Fjern": 7019, "\u2581pointed": 7020, "\u2581match": 7021, "tig": 7022, "\u2581slag": 7023, "making": 7024, "\u2581forberede": 7025, "iber": 7026, "\u2581fungere": 7027, "\u2581smart": 7028, "Gen": 7029, "\u2581benytte": 7030, "\u2581cre": 7031, "\u2581Ram": 7032, "\u2581pakke": 7033, "\u2581percent": 7034, "\u2581examine": 7035, "/4": 7036, "responsibilities": 7037, "\u2581colleagues": 7038, "\u2581ideel": 7039, "\u2581sell": 7040, "\u2581expression": 7041, "\u2581gods": 7042, "DC": 7043, "\u2581Bet\u00e6nkning": 7044, "\u2581hovedsagelig": 7045, "\u2581Yet": 7046, "\u2581fokus": 7047, "\u258125%": 7048, "\u2581moms": 7049, "lus": 7050, "\u2581frygt": 7051, "\u2581\u00c5r": 7052, "\u2581previously": 7053, "\u2581attitude": 7054, "\u2581retlige": 7055, "l\u00e6se": 7056, "ona": 7057, "elli": 7058, "oot": 7059, "\u2581Statistik": 7060, "\u2581kunnet": 7061, "\u2581fourth": 7062, "0000": 7063, "ces": 7064, "oni": 7065, "\u2581discrimination": 7066, "bus": 7067, "\u2581hunde": 7068, "\u2581hvorn\u00e5r": 7069, "\u2581positivt": 7070, "ges": 7071, "\u2581industries": 7072, "\u2581accounting": 7073, "bal": 7074, "\u2581securities": 7075, "\u2581Herren": 7076, "Office": 7077, "\u2581Antal": 7078, "pin": 7079, "\u2581consistent": 7080, "\u2581managed": 7081, "\u2581chosen": 7082, "rier": 7083, "\u2581Auto": 7084, "\u2581Next": 7085, "\u2581l\u00f8fte": 7086, "\u2581\u00f8st": 7087, "2008": 7088, "\u2581fjende": 7089, "\u2581hvorved": 7090, "sl\u00e6gt": 7091, "\u2581drawing": 7092, "\u25815-": 7093, "\u2581represented": 7094, "\u2581v\u00e6rre": 7095, "\u2581udfordringer": 7096, "\u2581tiln\u00e6rmelse": 7097, "\u2581derimod": 7098, "\u2581skader": 7099, "Com": 7100, "UR": 7101, "\u2581sendte": 7102, "OL": 7103, "\u2581officials": 7104, "\u2581slippe": 7105, "\u2581steg": 7106, "\u2581sult": 7107, "\u2581difficulty": 7108, "\u2581Bag": 7109, "\u2581Set": 7110, "\u2581Abraham": 7111, "gn": 7112, "\u2581udnyttelse": 7113, "\u2581h\u00e6nder": 7114, "\u2581Zo": 7115, "ori": 7116, "\u2581television": 7117, "TP": 7118, "\u2581fulfil": 7119, "\u2581accessible": 7120, "\u2581indvirkning": 7121, "\u2581mil": 7122, "\u2581Eastern": 7123, "\u2581SMV": 7124, "\u2581rail": 7125, "\u2581injury": 7126, "ras": 7127, "\u2581\u00b7": 7128, "\u2581largest": 7129, "\u2581normally": 7130, "\u2581skibe": 7131, "\u2581offentligg\u00f8res": 7132, "\u2581crash": 7133, "\u2581button": 7134, "\u2581thou": 7135, "\u2581udkast": 7136, "\u00e6rede": 7137, "\u2581neck": 7138, "\u2581fu": 7139, "\u2581respond": 7140, "\u2581operate": 7141, "cu": 7142, "\u2581\u00e6ndrer": 7143, "\u2581Creat": 7144, "\u2581begivenheder": 7145, "\u2581weekend": 7146, "wal": 7147, "matik": 7148, "\u2581Personer": 7149, "reservation": 7150, "\u2581medlemmerne": 7151, "br": 7152, "\u2581DKK": 7153, "\u2581anliggender": 7154, "ature": 7155, "SL": 7156, "\u2581directives": 7157, "\u2581Dam": 7158, "cur": 7159, "\u2581budskab": 7160, "0%": 7161, "\u2581statistiske": 7162, "\u2581Wall": 7163, "\u2581nyheder": 7164, "ving": 7165, "\u2581ansvaret": 7166, "\u2581sheet": 7167, "\u2581organize": 7168, "dumping": 7169, "\u2581S\u00e6t": 7170, "kl\u00e6d": 7171, "\u2581eksperter": 7172, "\u2581rejected": 7173, "\u2581rock": 7174, "\u2581path": 7175, "\u2581tv\u00e6rs": 7176, "\u2581hidtil": 7177, "\u2581fortsatte": 7178, "\u2581m\u00e6lk": 7179, "\u2581protein": 7180, "\u2581Kilde": 7181, "\u2581terrorist": 7182, "\u2581partnership": 7183, "\u2581\u00e6gteskab": 7184, "ison": 7185, "\u25812010.": 7186, "\u2581none": 7187, "sforslag": 7188, "cam": 7189, "\u2581oplysning": 7190, "\u2581tele": 7191, "\u2581satte": 7192, "gan": 7193, "\u2581afh\u00e6nger": 7194, "\u2581kat": 7195, "\u2581covers": 7196, "\u2581Romania": 7197, "kommen": 7198, "\u2581statements": 7199, "\u2581lege": 7200, "\u2581presentation": 7201, "fund": 7202, "\u2581kaldes": 7203, "\u2581kompromis": 7204, "yan": 7205, "\u25812009.": 7206, "overskridende": 7207, "\u2581klage": 7208, "rang": 7209, "\u2581Bio": 7210, "\u2581alcohol": 7211, "s\u00e5": 7212, "\u2581skud": 7213, "\u2581truly": 7214, "\u2581COUNCIL": 7215, "t\u00f8j": 7216, "\u2581shut": 7217, "st\u00e5et": 7218, "\u2581Gri": 7219, "ME": 7220, "\u2581danger": 7221, "\u2581princip": 7222, "ipp": 7223, "lic": 7224, "teknologi": 7225, "\u2581Wil": 7226, "\u2581Kal": 7227, "vet": 7228, "\u2581goal": 7229, "aff": 7230, "\u2581Airport": 7231, "excluding": 7232, "\u2581Vice": 7233, "\u2581wonderful": 7234, "\u2581ratio": 7235, "tz": 7236, "\u2581Vej": 7237, "pr": 7238, "\u2581hvid": 7239, "sprogram": 7240, "\u2581yesterday": 7241, "\u2581frems\u00e6tte": 7242, "\u2581Contract": 7243, "sor": 7244, "\u2581Fac": 7245, "pol": 7246, "drev": 7247, "yd": 7248, "\u2581Should": 7249, "sized": 7250, "\u2581guide": 7251, "\u2581kontraherende": 7252, "\u2581stolt": 7253, "\u2581significantly": 7254, "\u2581Cap": 7255, "\u2581chapter": 7256, "\u2581traditionelle": 7257, "\u2581errors": 7258, "\u2581\u00f8del\u00e6gge": 7259, "\u2581tildelt": 7260, "\u2581Comp": 7261, "6%": 7262, "LA": 7263, "\u2581dyre": 7264, "\u2581coal": 7265, "GR": 7266, "\u2581Analysis": 7267, "\u2581marriage": 7268, "\u2581arbejdstagerne": 7269, "\u2581opinions": 7270, "\u2581carbon": 7271, "\u2581retf\u00e6rdighed": 7272, "\u2581reduktion": 7273, "\u2581undskyld": 7274, "\u2581Ned": 7275, "\u2581komponenter": 7276, "brev": 7277, "\u2581anf\u00f8rte": 7278, "CA": 7279, "\u2581virksomhederne": 7280, "\u2581Vidne": 7281, "\u2581forbrugerne": 7282, "punkt": 7283, "\u2581Almindelig": 7284, "\u2581primarily": 7285, "\u2581stabilitet": 7286, "\u2581supports": 7287, "igt": 7288, "\u2581audio": 7289, "\u2581simpelt": 7290, "\u2581manage": 7291, "\u2581velsigne": 7292, "\u2581audit": 7293, "\u2581settlement": 7294, "\u2581Billed": 7295, "virksomhed": 7296, "\u2581finding": 7297, "\u2581Herre": 7298, "\u2581optaget": 7299, "\u2581subjects": 7300, "itis": 7301, ".2.": 7302, "\u2581Funds": 7303, "\u2581underretter": 7304, "\u2581regarded": 7305, "\u2581noise": 7306, "\u2581proportion": 7307, "\u2581moral": 7308, "\u2581twice": 7309, "\u2581assess": 7310, "\u2581entirely": 7311, "\u2581lag": 7312, "\u2581maintained": 7313, "\u2581Host": 7314, "\u2581afdeling": 7315, "lf": 7316, "\u2581befolkningen": 7317, "kning": 7318, "esl\u00e5ede": 7319, "\u2581sidde": 7320, "border": 7321, "\u2581relative": 7322, "\u2581tilskud": 7323, "\u2581fit": 7324, "\u00a3": 7325, "\u2581brugen": 7326, "\u2581hvide": 7327, "\u2581landbruget": 7328, "\u2581begr\u00e6nsninger": 7329, "\u2581Head": 7330, "stad": 7331, "\u2581mods\u00e6tning": 7332, "\u2581incorporated": 7333, "\u2581svare": 7334, "ily": 7335, "phe": 7336, "\u2581preliminary": 7337, "\u2581Maastricht": 7338, "\u2581kontrakter": 7339, "\u2581island": 7340, "\u2581manufacturers": 7341, "fore": 7342, "\u2581respective": 7343, "alle": 7344, "verything": 7345, "\u2581b\u00e6re": 7346, "\u2581ris": 7347, "\u2581diseases": 7348, "\u2581gad": 7349, "\u2581larger": 7350, "\u2581skriftlig": 7351, "\u2581pleased": 7352, "\u2581garden": 7353, "\u2581recommendation": 7354, "pul": 7355, "\u2581str\u00f8m": 7356, "m\u00e5l": 7357, "\u2581colour": 7358, "\u2581exemption": 7359, "industri": 7360, "\u2581slow": 7361, "\u2581letters": 7362, "\u2581supplied": 7363, "\u2581evil": 7364, "\u2581elektronisk": 7365, "\u2581precise": 7366, "4-": 7367, "\u2581opfordre": 7368, "\u2581critical": 7369, "\u2581till": 7370, "lit": 7371, "\u2581fibre": 7372, "\u2581season": 7373, "pir": 7374, "unk": 7375, "\u2581participating": 7376, "\u2581udviklingslande": 7377, "\u2581increases": 7378, "\").": 7379, "\u2581sande": 7380, "br\u00e6t": 7381, "\u2581UD": 7382, "press": 7383, "\u2581willing": 7384, "\u2581Network": 7385, "last": 7386, "\u2581careful": 7387, "\u2581spurgte": 7388, "\u2581remind": 7389, "\u2581Support": 7390, "\u2581110": 7391, "\u2581surveillance": 7392, "rea": 7393, "\u258140%": 7394, "\u2581f\u00f8dsel": 7395, "\u2581sc": 7396, "anti": 7397, "\u2581processed": 7398, "\u2581pp": 7399, "\u2581Single": 7400, "\u2581powder": 7401, "\u2581schools": 7402, "\u2581delvis": 7403, "\u2581ond": 7404, "\u2581supplies": 7405, "\u2581Gran": 7406, "\u2581dansk": 7407, "\u2581800": 7408, "\u2581Uddannelse": 7409, "lack": 7410, "\u2581lokal": 7411, "\u2581Ref": 7412, "\u2581arrangement": 7413, "\u2581spanske": 7414, "\u2581courses": 7415, "ctor": 7416, "\u2581160": 7417, "lyn": 7418, "\u2581buildings": 7419, "\u2581f\u00e6rdige": 7420, "\u2581introduce": 7421, "\u2581berettiget": 7422, "\u2581kroppen": 7423, "\u2581translation": 7424, "kraft": 7425, "\u2581underlagt": 7426, "bis": 7427, "gruppen": 7428, "\u2581f\u00e6llesskab": 7429, "\u2581hvoraf": 7430, "\u2581Ul": 7431, "\u2581geographical": 7432, "\u2581l\u00f8be": 7433, "\u2581Irish": 7434, "\u2581reactions": 7435, "\u2581recommend": 7436, "\u2581Ty": 7437, "\u2581mangel": 7438, "rug": 7439, "\u2581Udtalelse": 7440, "retningsordenen": 7441, "\u2581cu": 7442, "\u2581loven": 7443, "\u2581inds\u00e6ttes": 7444, "Lo": 7445, "\u2581allocation": 7446, "\u2581Jew": 7447, "\u2581carefully": 7448, "zar": 7449, "liste": 7450, "\u2581Johannes": 7451, "\u2581Tal": 7452, "\u2581Light": 7453, "\u2581seeking": 7454, "\u2581experienced": 7455, "\u2581jurisdiction": 7456, "g\u00f8r": 7457, "\u2581samfundet": 7458, "\u2581Organisation": 7459, "AF": 7460, "\u2581consists": 7461, "\u2581represents": 7462, "\u2581Steel": 7463, "\u2581umuligt": 7464, "\u2581wild": 7465, "\u2581netto": 7466, "\u2581blow": 7467, "\u2581amend": 7468, "\u2581personligt": 7469, "r\u00f8r": 7470, "\u2581vises": 7471, "pan": 7472, "\u2581onde": 7473, "\u2581strengthening": 7474, "\u2581star": 7475, "\u2581justified": 7476, "\u2581kulturelle": 7477, "\u2581Legal": 7478, "rl": 7479, "\u2581nine": 7480, "ssystemer": 7481, "\u2581anbefales": 7482, "\u2581determination": 7483, "\u2581bolig": 7484, "bogen": 7485, "illy": 7486, "\u2581urgent": 7487, "\u2581d\u00e5rlig": 7488, "\u2581taxes": 7489, "sprogrammer": 7490, "\u2581salt": 7491, "\u2581tabletter": 7492, "law": 7493, "\u2581causes": 7494, "CAS": 7495, "splan": 7496, "bank": 7497, "\u2581camping": 7498, "ubb": 7499, "\u2581kampen": 7500, "\u2581regret": 7501, "\u2581calculation": 7502, "\u2581forth": 7503, "\u2581gr\u00f8ntsager": 7504, "\u2581Mov": 7505, "come": 7506, "\u2581functioning": 7507, "andre": 7508, "\u2581Ag": 7509, "\u2581Fremstilling": 7510, "ssa": 7511, "\u2581discover": 7512, "organ": 7513, "\u2581hastighed": 7514, "\u2581n\u00e6rheden": 7515, "k\u00f8d": 7516, "trin": 7517, "\u2581GATT": 7518, "\u258183": 7519, "\u2581passe": 7520, "\u2581shape": 7521, "ida": 7522, "\u2581Step": 7523, "\u2581kolleg": 7524, "\u2581p\u00e5virke": 7525, "\u2581thousand": 7526, "\u2581explained": 7527, "\u2581forholdet": 7528, "\u2581throw": 7529, "\u25811234/2007": 7530, "kurv": 7531, "\u2581rose": 7532, "\u2581trip": 7533, "ynder": 7534, "\u2581fault": 7535, "\u2581Remove": 7536, "Mo": 7537, "somkostninger": 7538, "\u2581FA": 7539, "\u2581Frank": 7540, "FUSP": 7541, "\u2581route": 7542, "lis": 7543, "\u2581transitional": 7544, "\u2581indenfor": 7545, "\u2581dr\u00e6bt": 7546, "\u2581shift": 7547, "\u2581glemme": 7548, "\u2581hundred": 7549, "\u2581Indien": 7550, "\u2581b\u00f8rnene": 7551, "\u2581internationalt": 7552, "\u2581interesserede": 7553, "\u2581spoke": 7554, "EM": 7555, "\u2581crucial": 7556, "\u2581ordf\u00f8rer": 7557, "\u2581sen": 7558, "\u2581familier": 7559, "gav": 7560, "\u2581projektet": 7561, "\u2581adverse": 7562, "att": 7563, "\u2581flu": 7564, "\u2581permit": 7565, "ats": 7566, "\u2581Water": 7567, "\u2581ber\u00f8rer": 7568, "\u2581udarbejdelse": 7569, "\u2581arbejdsl\u00f8shed": 7570, "\u2581por": 7571, "\u2581hensigtsm\u00e6ssigt": 7572, "\u2581Hele": 7573, "\u2581Res": 7574, "\u2581solidarity": 7575, "\u2581milit\u00e6r": 7576, "OD": 7577, "\u2581n\u00e6vne": 7578, "2009": 7579, "\u2581\u2264": 7580, "\u2581farlige": 7581, "iti": 7582, "\u2581Additional": 7583, "\u2581propose": 7584, "ovn": 7585, "\u2581bestemme": 7586, "\u2581Sant": 7587, "bul": 7588, "\u2581st\u00e6rke": 7589, "\u2581n\u00f8dvendighed": 7590, "NA": 7591, "\u2581finger": 7592, "\u2581cards": 7593, "\u2581designated": 7594, "cle": 7595, "\u00f3": 7596, "\u2581fart\u00f8jer": 7597, "\u2581healthy": 7598, "\u2581thy": 7599, "\u2581sam": 7600, "\u25819.1": 7601, "Ch": 7602, "eck": 7603, "gruppe": 7604, "\u2581suit": 7605, "una": 7606, "tjenester": 7607, "\u2581comparison": 7608, "\u2581load": 7609, "\u2581honey": 7610, "\u2581fyldt": 7611, "\u2581oms\u00e6tning": 7612, "gam": 7613, "\u2581saved": 7614, "\u2581ice": 7615, "\u2581Secondly": 7616, "\u2581m\u00f8rke": 7617, "\u2581Ten": 7618, "\u2581ydelse": 7619, "sler": 7620, "\u2581regelm\u00e6ssigt": 7621, "\u2581tanke": 7622, "\u2581udgangspunkt": 7623, "\u2581Best": 7624, "\u2581staten": 7625, "\u2581temperatur": 7626, "rt": 7627, "vist": 7628, "\u2581endog": 7629, "\u2581eksempler": 7630, "\u2581Strasbourg": 7631, "\u2581Was": 7632, "igesom": 7633, "\u00e2": 7634, "\u2581title": 7635, "\u2581Employment": 7636, "\u2581kilde": 7637, "\u2581Call": 7638, "ads": 7639, "\u2581D\u00f8d": 7640, "\u2581definitely": 7641, "\u2581collected": 7642, "\u2581j\u00f8d": 7643, "brud": 7644, "\u2581Korea": 7645, "\u2581strategic": 7646, "\u2581geografiske": 7647, "\u2581measured": 7648, "\u2581codes": 7649, "\u2581false": 7650, "-7": 7651, "2003": 7652, "lt": 7653, "\u2581affairs": 7654, "\u2581conversion": 7655, "\u2581udgifterne": 7656, "link": 7657, "\u2581Chamber": 7658, "\u2581dr\u00e6bte": 7659, "\u2581Brand": 7660, "\u2581soft": 7661, "\u2581treat": 7662, ".3": 7663, "\u2581component": 7664, "\u2581certificates": 7665, "\u2581ships": 7666, "\u2581organic": 7667, "\u2581des": 7668, "kal": 7669, "\u2581opretholde": 7670, "\u2581harmonisering": 7671, "\u2581m\u00f8des": 7672, "\u2581103": 7673, "\u2581hals": 7674, "\u2581historiske": 7675, "\u2581stra": 7676, "lecommunications": 7677, "komst": 7678, "\u2581Derefter": 7679, "\u2581Society": 7680, "\u00e6der": 7681, "\u2581fraud": 7682, "\u2581Mont": 7683, "\u2581H\u00f8j": 7684, "\u2581emission": 7685, "\u2581Class": 7686, "\u2581released": 7687, "\u2581boat": 7688, "\u2581professor": 7689, "2019": 7690, "\u2581anmeldelser": 7691, "\u258180%": 7692, "\u2581\u00e6g": 7693, "cus": 7694, "\u2581kinesiske": 7695, "comfortable": 7696, "\u2581niveauer": 7697, "\u2581interesseret": 7698, "\u2581Company": 7699, "DL": 7700, "lade": 7701, "\u2581fiske": 7702, "\u2581supervision": 7703, "\u2581elektroniske": 7704, "\u2581maksimal": 7705, "\u2581servants": 7706, "transport": 7707, "\u2581stammer": 7708, "\u2581ball": 7709, "burg": 7710, "\u2581placebo": 7711, "\u2581d\u00f8den": 7712, "ony": 7713, "\u2581RA": 7714, "\u2581ruling": 7715, "\u2581attempt": 7716, "\u2581signs": 7717, "\u2581Kort": 7718, "-18": 7719, "\u2581fugle": 7720, "\u2581p\u00e5virker": 7721, "valg": 7722, "uke": 7723, "\u2581kliniske": 7724, "iser": 7725, "\u2581Mill": 7726, "mond": 7727, "\u2581stykker": 7728, "\u2581battle": 7729, "\u2581tysk": 7730, "\u2581plante": 7731, "\u2581Schweiz": 7732, "\u2581konstant": 7733, "\u2581caught": 7734, "tager": 7735, "\u2581unable": 7736, "stik": 7737, "\u2581ild": 7738, "reg": 7739, "\u2581licens": 7740, "\u2581Va": 7741, "\u2581fr\u00f8": 7742, "\u2581korte": 7743, "\u2581stupid": 7744, "icious": 7745, "\u2581v\u00e6rdien": 7746, "\u2581f\u00e6ngsel": 7747, "delse": 7748, "\u2581object": 7749, "\u2581b\u00f8ger": 7750, "\u2581hy": 7751, "\u2581anbefaler": 7752, "\u2581interview": 7753, "\u2581occasion": 7754, "\u2581burden": 7755, "\u2581older": 7756, "\u2581tr\u00e5d": 7757, "\u2581street": 7758, "\u2581toward": 7759, "\u2581r\u00f8d": 7760, "crypt": 7761, "\u2581invited": 7762, "\u2581vedtager": 7763, "\u2581bringer": 7764, "\u2581indkomst": 7765, "\u2581pligt": 7766, "\u2581Card": 7767, "\u2581discharge": 7768, "\u2581borders": 7769, "\u2581Charles": 7770, "\u2581forebyggelse": 7771, "h\u00f8r": 7772, "ert": 7773, "any": 7774, "ified": 7775, "\u2581angivelse": 7776, "Man": 7777, "\u2581learned": 7778, "\u2581Mur": 7779, "ures": 7780, "\u2581Save": 7781, "\u2581Saint": 7782, "bat": 7783, "phone": 7784, "\u2581Road": 7785, "vert": 7786, "\u2581Foundation": 7787, "\u2581Wel": 7788, "garanti": 7789, "\u2581square": 7790, "KOM": 7791, "\u258109": 7792, "\u2581venlig": 7793, "aftale": 7794, "\u2581Sidste": 7795, "\u2581udvidelsen": 7796, "\u2581joy": 7797, "v\u00e6rk": 7798, "tru": 7799, "\u2581Dar": 7800, ".3.": 7801, "\u2581beregnes": 7802, "\u2581d\u00e6kket": 7803, "\u2581hundrede": 7804, "\u2581Tar": 7805, "\u2581minus": 7806, "\u2581afstand": 7807, "\u2581bin": 7808, "\u2581byer": 7809, "\u2581\u00e5bning": 7810, "rev": 7811, "PL": 7812, "\u2581identity": 7813, "\u2581parlament": 7814, "\u2581unders\u00f8gt": 7815, "itor": 7816, "\u2581reflect": 7817, "\u2581forventede": 7818, "rac": 7819, "\u2581regularly": 7820, "ters": 7821, "oul": 7822, "\u25811972": 7823, "\u2581cars": 7824, "\u2581trend": 7825, "\u2581poverty": 7826, "\u2581tabled": 7827, "bet\u00e6nkningen": 7828, "\u2581plastic": 7829, "\u2581machinery": 7830, "\u2581overholde": 7831, "v\u00e5g": 7832, "\u2581Select": 7833, "oxy": 7834, "\u2581arising": 7835, "\u2581bound": 7836, "\u2581urban": 7837, "\u2581Faktisk": 7838, "\u2581udsigt": 7839, "\u2581butter": 7840, "\u2581situationer": 7841, "olo": 7842, "\u2581Has": 7843, "nit": 7844, "AM": 7845, "\u2581subsequent": 7846, "forordningens": 7847, "sc": 7848, "software": 7849, "\u2581comfort": 7850, "lagt": 7851, "\u2581completion": 7852, "stration": 7853, "\u2581Dutch": 7854, "\u2581Portuguese": 7855, "\u2581rom": 7856, "\u2581falde": 7857, "\u2581OR": 7858, "\u2581reformer": 7859, "\u2581beregning": 7860, "dress": 7861, "\u2581quiet": 7862, "smuligheder": 7863, "\u2581thereby": 7864, "sproces": 7865, "\u2581Para": 7866, "\u2581modstand": 7867, "etter": 7868, "\u2581prisen": 7869, "\u2581pattern": 7870, "\u2581Cath": 7871, "\u2581concrete": 7872, "\u2581pleje": 7873, "\u2581d\u00e6kning": 7874, "200": 7875, "pille": 7876, "\u2581Secretary": 7877, "sniveau": 7878, "\u25811.2.1": 7879, "bad": 7880, "\u2581bought": 7881, "Der": 7882, "\u2581skolen": 7883, "t\u00e6nk": 7884, "\u2581lovgivningen": 7885, "\u2581forpligtet": 7886, "\u2581adult": 7887, "\u258114,": 7888, "\u2581hud": 7889, "\u2581Budget": 7890, "\u2581farver": 7891, "\u2581aktivt": 7892, "stu": 7893, "\u2581overbevist": 7894, "\u2581straffe": 7895, "\u2581margin": 7896, "wing": 7897, "\u2581attached": 7898, "\u2581Film": 7899, "\u2581Mens": 7900, "\u2581bottom": 7901, "Mar": 7902, "\u2581Program": 7903, "\u2581forventer": 7904, "ili": 7905, "\u2581diskutere": 7906, "\u2581k\u00f8ber": 7907, "\u2581effectiveness": 7908, "\u2581n\u00f8dvendigvis": 7909, "virksomheder": 7910, "\u258191/414/": 7911, "\u2581named": 7912, "aire": 7913, "\u2581Net": 7914, "\u2581oversigt": 7915, "ding": 7916, "cont": 7917, "\u2581angives": 7918, "\u2581Directives": 7919, "\u2581Universitet": 7920, "\u00e5l": 7921, "\u2581Doc": 7922, "\u2581styrkelse": 7923, "baby": 7924, "\u2581udg\u00f8re": 7925, "\u2581retsakter": 7926, "\u2581r\u00f8de": 7927, "\u2581svarede": 7928, "k\u00e5l": 7929, "\u2581pray": 7930, "\u2581milliard": 7931, "\u2581EX": 7932, "\u2581undertaken": 7933, "\u2581AC": 7934, "\u2581understreger": 7935, "\u2581je": 7936, "\u2581DENNE": 7937, "\u2581changing": 7938, "bestemmelserne": 7939, "\u2581ECSC": 7940, "servere": 7941, "\u2581forbudt": 7942, "\u2581Technical": 7943, "\u2581chain": 7944, "\u2581barnet": 7945, "\u2581famo": 7946, "\u2581award": 7947, "\u2581medicines": 7948, "\u25814)": 7949, "\u2581kemiske": 7950, "alt": 7951, "\u2581ac": 7952, "\u2581prim\u00e6rt": 7953, "\u2581tredjeland": 7954, "\u2581guidance": 7955, "\"),": 7956, "\u2581foretager": 7957, "\u2581indeholdt": 7958, "\u2581involve": 7959, "\u2581losses": 7960, "\u2581kontrollen": 7961, "\u2581uafh\u00e6ngige": 7962, "\u2581Nevertheless": 7963, "\u2581vest": 7964, "\u2581forarbejdning": 7965, "indhold": 7966, "\u2581Lav": 7967, "\u2581competence": 7968, "pine": 7969, "\u2581continues": 7970, "\u2581vinder": 7971, "mis": 7972, "\u2581fjernes": 7973, "\u2581Monetary": 7974, "\u2581Ol": 7975, "\u2581lies": 7976, "\u2581smaller": 7977, "\u2581enforcement": 7978, "ui": 7979, "UN": 7980, "aria": 7981, "\u2581forl\u00e6ngelse": 7982, "\u2581stable": 7983, "\u2581custom": 7984, "\u2581Sydafrika": 7985, "\u2581opn\u00e5s": 7986, "\u2581artikler": 7987, "\u2581humans": 7988, "erhaps": 7989, "\u258115%": 7990, "\u2581(8)": 7991, "mont": 7992, "taler": 7993, "\u2581parallel": 7994, "\u2581lider": 7995, "fully": 7996, "\u2581Jordan": 7997, "\u2581solidaritet": 7998, "CH": 7999, "sp\u00f8rgsm\u00e5l": 8000, "\u2581Syd": 8001, "\u2581overleve": 8002, "\u2581d\u00e9r": 8003, "\u2581Intet": 8004, "\u2581infected": 8005, "\u2581prayer": 8006, "ordning": 8007, "\u2581AD": 8008, "\u2581Western": 8009, "\u2581betalt": 8010, "\u2581forst\u00e5s": 8011, "\u2581Vedtage": 8012, "\u2581Richard": 8013, "\u2581offentligheden": 8014, "baserede": 8015, "kamera": 8016, "\u2581offentligt": 8017, "\u2581tilgang": 8018, "\u2581kaste": 8019, "\u2581sensitive": 8020, "lands": 8021, "\u2581aspect": 8022, "Op": 8023, "\u2581height": 8024, "\u2581tidligt": 8025, "cul": 8026, "\u2581sandhed": 8027, "\u2581Oversigt": 8028, "\u2581USE": 8029, "\u2581Kristi": 8030, "tek": 8031, "CM": 8032, "uden": 8033, "\u25811-": 8034, "\u2581gruppen": 8035, "MA": 8036, "\u2581GA": 8037, "\u2581Bulgaria": 8038, "\u0142": 8039, "\u2581Digital": 8040, "\u2581bilateral": 8041, "\u2581teach": 8042, "\u2581daglige": 8043, "\u2581records": 8044, "\u2581AFG\u00d8RELSE": 8045, "long": 8046, "\u2581ejer": 8047, "\u2581starter": 8048, "\u2581Cho": 8049, "\u2581survey": 8050, "\u2581Tabel": 8051, "\u2581warning": 8052, "\u2581Stock": 8053, "\u2581fordeling": 8054, "\u2581Hungary": 8055, "kelig": 8056, "page": 8057, "\u00f8ve": 8058, "\u2581praktiske": 8059, "\u2581liability": 8060, "\u2581tradition": 8061, "\u2581EKSF": 8062, "\u2581imagine": 8063, "\u2581lykkelig": 8064, "\u2581pleasure": 8065, "funktion": 8066, "\u2581recognize": 8067, "\u2581Nr": 8068, "\u2581nationals": 8069, "\u2581ought": 8070, "\u2581Non": 8071, "ugh": 8072, "\u2581cereals": 8073, "\u2581indg\u00e5else": 8074, "\u2581trafik": 8075, "\u2581communications": 8076, "\u2581gem": 8077, "\u2581derved": 8078, "\u2581lived": 8079, "\u2581participants": 8080, "\u2581heri": 8081, "\u2581industrien": 8082, "\u2581GDP": 8083, "enes": 8084, "\u2581Second": 8085, "\u2581pieces": 8086, "\u2581tildeling": 8087, "\u2581regulering": 8088, "\u2581rimelig": 8089, "LI": 8090, "\u2581indlede": 8091, "\u2581bevillinger": 8092, "\u2581kap": 8093, "relaterede": 8094, "\u2581minimums": 8095, "\u2581t\u00f8r": 8096, "\u2581symptomer": 8097, "\u2581snarere": 8098, "\u2581block": 8099, "\u2581centres": 8100, "\u2581Communication": 8101, "\u25811974": 8102, "\u2581afslutning": 8103, "\u2581solve": 8104, "\u2581studie": 8105, "\u25812011.": 8106, "\u2581taxation": 8107, "\u2581fee": 8108, "\u2581William": 8109, "-20": 8110, "lat": 8111, ".1.": 8112, "\u2581rente": 8113, "\u2581samle": 8114, "\u2581Indeed": 8115, "\u2581dates": 8116, "\u2581holy": 8117, "\u2581fange": 8118, "boks": 8119, "\u2581Frem": 8120, "\u2581tunge": 8121, "\u2581lukke": 8122, "\u00a1": 8123, "izing": 8124, "\u2581udtrykt": 8125, "\u2581campaign": 8126, "iner": 8127, "table": 8128, "\u2581klassisk": 8129, "IV": 8130, "mb": 8131, "\u2581b\u00e5nd": 8132, "\u2581stick": 8133, "relse": 8134, "\u2581mono": 8135, "\u2581gribe": 8136, "\u2581farligt": 8137, "\u2581OP": 8138, "NE": 8139, "\u2581demands": 8140, "\u2581suffer": 8141, "\u2581worldwide": 8142, "vir": 8143, "\u2581notify": 8144, "ates": 8145, "\u2581maksimale": 8146, "\u2581sikres": 8147, "\u2581Transfer": 8148, "\u2581flowers": 8149, "\u2581nyttigt": 8150, "\u2581Simon": 8151, "start": 8152, "\u2581m\u00e5ls\u00e6tninger": 8153, "nere": 8154, "\u2581Break": 8155, "tag": 8156, "\u2581ang\u00e5ende": 8157, "\u2581Institute": 8158, "300": 8159, "/2000": 8160, "sbetingelser": 8161, "\u2581Henry": 8162, "\u2581Cor": 8163, "\u2581UDSTEDT": 8164, "\u2581frugter": 8165, "3)": 8166, "\u2581P\u00c5": 8167, "\u2581regionen": 8168, "\u2581benyttes": 8169, "\u2581conclude": 8170, "\u2581siges": 8171, "\u2581nar": 8172, "\u2581heldig": 8173, "\u2581millions": 8174, "\u2581Sil": 8175, "\u2581Ya": 8176, "\u2581inkluderer": 8177, "\u2581Forordning": 8178, "\u2581opdatere": 8179, "\u2581ans\u00f8gninger": 8180, "\u2581b\u00e6rer": 8181, "ference": 8182, "\u2581sl\u00e5et": 8183, "hood": 8184, "\u2581relatively": 8185, "\u2581rapid": 8186, "\u2581\u00f8jnene": 8187, "lede": 8188, "\u2581bes\u00f8ge": 8189, "\u2581breath": 8190, "stein": 8191, "\u2581Sl\u00e6gt": 8192, "\u2581underlying": 8193, ".4": 8194, "arch": 8195, "\u2581Terr": 8196, "\u2581Both": 8197, "dra": 8198, "\u2581Enhver": 8199, "givet": 8200, "roll": 8201, "ego": 8202, "\u2581succeed": 8203, "\u2581Form\u00e5le": 8204, "\u2581forstand": 8205, "job": 8206, "\u2581smerte": 8207, "\u2581holdes": 8208, "like": 8209, "vik": 8210, "\u2581indf\u00f8relsen": 8211, "vie": 8212, "\u2581informationer": 8213, "\u2581leaves": 8214, "bringe": 8215, "Le": 8216, "\u2581Lang": 8217, "\u2581bygninger": 8218, "\u2581mild": 8219, "\u2581gear": 8220, "\u2581linjer": 8221, "krog": 8222, "\u2581returned": 8223, "\u2581Fre": 8224, "giv": 8225, "\u2581Ur": 8226, "\u2581camera": 8227, "\u2581student": 8228, "\u2581toiletartikler": 8229, "ody": 8230, "grund": 8231, "\u2581bygget": 8232, "\u2581exists": 8233, "\u2581historien": 8234, "\u2581l\u00f8ber": 8235, "\u2581plast": 8236, "view": 8237, "\u2581approximation": 8238, "\u2581DET": 8239, "\u2581deemed": 8240, "\u2581reaction": 8241, "klage": 8242, "\u2581misbrug": 8243, "omething": 8244, "\u2581.\"": 8245, "\u2581Rule": 8246, "\u2581behandler": 8247, "\u2581erstatning": 8248, "\u2581dennes": 8249, "Ma": 8250, "\u2581financed": 8251, "\u2581outstanding": 8252, "\u2581regn": 8253, "\u2581priserne": 8254, "\u2581Asia": 8255, "\u2581Fast": 8256, "\u2581traktat": 8257, "\u2581synspunkter": 8258, "\u2581infection": 8259, "\u2581AG": 8260, "\u2581kr\u00e6fter": 8261, "cap": 8262, "\u2581besk\u00e6ftigelsen": 8263, "\u2581Manufacture": 8264, "\u2581apparater": 8265, "\u2581beat": 8266, "-12": 8267, "\u2581henstilling": 8268, "\u2581Image": 8269, "\u2581providers": 8270, "\u2581kontakte": 8271, "kra": 8272, "\u2581Stat": 8273, "\u2581k\u00f8n": 8274, "indstilling": 8275, "\u2581sikkerheden": 8276, "\u2581s\u00e6lge": 8277, "\u2581\u00d7": 8278, "\u2581recording": 8279, "t\u00e6ppe": 8280, "93": 8281, "\u2581potentielle": 8282, "ji": 8283, "\u2581udg": 8284, "\u2581\u00f8ve": 8285, "\u2581l\u00e6gges": 8286, "\u2581prim\u00e6re": 8287, "\u2581Australia": 8288, "\u2581Switzerland": 8289, "dommen": 8290, "\u2581ud\u00f8ve": 8291, "Til": 8292, "unter": 8293, "\u2581Flower": 8294, "hul": 8295, "syre": 8296, "\u2581Clean": 8297, "\u2581mel": 8298, "\u2581savn": 8299, "\u2581retail": 8300, "\u2581s\u00e6ttes": 8301, "\u2581panel": 8302, "l\u00e6g": 8303, "\u2581omkostningerne": 8304, "skelsbehandling": 8305, "\u2581increasingly": 8306, "stof": 8307, "\u2581balanced": 8308, "\u2020": 8309, "\u2581transparent": 8310, "\u2581regulativ": 8311, "\u2581gensidig": 8312, "\u2581models": 8313, "\u2581forh\u00e5nd": 8314, "\u2581verification": 8315, "\u2581mechanisms": 8316, "gal": 8317, "\u2581vender": 8318, "\u2581tobacco": 8319, "nger": 8320, "\u2581defend": 8321, "\u2581male": 8322, "\u2581accepterer": 8323, "put": 8324, "\u2581forlade": 8325, "\\": 8326, "srettigheder": 8327, "\u2581foodstuffs": 8328, "\u2581f\u00f8de": 8329, "\u2581planet": 8330, "\u2581sommer": 8331, "\u2581euroen": 8332, "\u2581k\u00f8ret\u00f8jet": 8333, "\u2581Komit\u00e9": 8334, "\u2581perfectly": 8335, "anske": 8336, "\u2581invitation": 8337, "\u2581transferred": 8338, "\u2581mode": 8339, "\u2581faithful": 8340, "\u2581possibly": 8341, "\u2581vol": 8342, "\u2581Jews": 8343, "och": 8344, "\u2581cheap": 8345, "\u2581BNP": 8346, "\u2581restore": 8347, "\u2581Lys": 8348, "\u2581Blande": 8349, "\u2581Turn": 8350, "\u2581Forskning": 8351, "\u2581ku": 8352, "\u2581agter": 8353, "\u2581Gam": 8354, "vn": 8355, "\u2581107": 8356, "\u2581anyway": 8357, "\u2581Um": 8358, "\u2581kommentarer": 8359, "\u2581vidne": 8360, "\u2581hardware": 8361, "\u2581ancient": 8362, "nc": 8363, "\u2581SE": 8364, "unch": 8365, "\u2581print": 8366, "\u2581kalde": 8367, "\u2581trussel": 8368, "\u2581Arm": 8369, "\u2581hul": 8370, "\u2581udf\u00f8rer": 8371, "PA": 8372, "governmental": 8373, "oral": 8374, "\u2581Tidligere": 8375, "\u2581udvikler": 8376, "dia": 8377, "\u2581ramt": 8378, "\u2581Sim": 8379, "\u2581B\u00f8rn": 8380, "\u2581repeal": 8381, "fold": 8382, "\u2581Motor": 8383, "\u2581oprettede": 8384, "qua": 8385, "\u2581filter": 8386, "\u2581opbygge": 8387, "\u2581Side": 8388, "\u2581engagement": 8389, "\u2581adopting": 8390, "\u2581sheep": 8391, "\u2581wise": 8392, "\u2581vandet": 8393, "\u2581fastl\u00e6gge": 8394, "\u2581recital": 8395, "\u2581udenfor": 8396, "aza": 8397, "\u2581Ev": 8398, "\u2581fighting": 8399, "\u2581kryds": 8400, "\u2581Customer": 8401, "\u2581manufacturing": 8402, "\u2581minder": 8403, "\u2581Revisionsretten": 8404, "\u25812%": 8405, "\u2581intention": 8406, "\u2581communicate": 8407, "bud": 8408, "\u2581Facilities": 8409, "\u2581tourism": 8410, "\u2581angel": 8411, "\u2581findings": 8412, "\u2581smule": 8413, "\u2581k\u00f8rt": 8414, "\u2581navne": 8415, "\u2581tendens": 8416, "\u2581texts": 8417, "cell": 8418, "isa": 8419, "\u2581placing": 8420, "\u2581direktiver": 8421, "\u2581identitet": 8422, "\u2581overordnede": 8423, "\u2581assigned": 8424, "\u2581regnskabs\u00e5ret": 8425, "\u2581marine": 8426, "ummer": 8427, "\u2581betalinger": 8428, "\u2581fibres": 8429, "\u2581occurred": 8430, "\u2581Technology": 8431, "uge": 8432, "\u2581wishes": 8433, "\u2581administered": 8434, "\u2581witnesses": 8435, "\u2581Ban": 8436, "\u2581packaging": 8437, "\u2581park": 8438, "hin": 8439, "\u2581teksten": 8440, "\u2581drag": 8441, "char": 8442, "\u2581forurening": 8443, "\u2581column": 8444, "\u2581\u00b1": 8445, "\u2581Actual": 8446, "\u2581Regions": 8447, "\u2581h\u00e5rd": 8448, "\u2581unfortunate": 8449, "\u2581Ministry": 8450, "\u2581g\u00e6lde": 8451, "\u2581honourable": 8452, "\u2581judicial": 8453, "\u2581excit": 8454, "\u2581Women": 8455, "with": 8456, "\u2581Computer": 8457, "\u2581refunds": 8458, "\u2581miles": 8459, "\u2581advare": 8460, "\u2581Thailand": 8461, "\u2581placering": 8462, "\u2581rental": 8463, "\u2581Import": 8464, "\u2581engaged": 8465, "\u2581p\u00e5virket": 8466, "\u2581virksomheds": 8467, "\u2581afgifter": 8468, "\u2581Domstolens": 8469, "nge": 8470, "\u2581dear": 8471, "\u2581havne": 8472, "mate": 8473, "\u2581Tur": 8474, "-15": 8475, "\u2581electric": 8476, "uer": 8477, "\u2581lagde": 8478, "\u2581obviously": 8479, "\u2581reliable": 8480, "\u2581sammenligning": 8481, "TO": 8482, "\u2581Swedish": 8483, "\u2581bed\u00f8mmelse": 8484, "\u2581relevance": 8485, "\u2581Industrial": 8486, "\u2581fastl\u00e6gges": 8487, "\u2581mandate": 8488, "\u2581Poly": 8489, "\u2581websted": 8490, "\u2581\u00e6": 8491, "v\u00e6": 8492, "\u2581hvorledes": 8493, "\u2581bragt": 8494, "\u2581Lind": 8495, "\u2581herp\u00e5": 8496, "\u2581avis": 8497, "vac": 8498, "\u2581Adopted": 8499, "\u2581NB": 8500, "ationer": 8501, "ific": 8502, "\u2581anywhere": 8503, "\u2581planl\u00e6gning": 8504, "\u2581generel": 8505, "\u2581numerous": 8506, "1)": 8507, "\u2581V\u00e6rdi": 8508, "\u2581modtog": 8509, "\u2581Pakistan": 8510, "\u2581impo": 8511, "ray": 8512, "\u2581placeret": 8513, "\u2581nyeste": 8514, "\u2581stitch": 8515, "\u2581s\u00e6r": 8516, "\u2581honor": 8517, "\u2581ledere": 8518, "\u2581imellem": 8519, "\u2581clock": 8520, "olic": 8521, "\u2581forskellig": 8522, "\u25816-": 8523, "regler": 8524, "\u2581vagt": 8525, "-9": 8526, "\u25812012.": 8527, "\u2581DECISION": 8528, "\u00f8ren": 8529, "\u25813%": 8530, "pyr": 8531, "\u2581harm": 8532, "\u2581Rum\u00e6nien": 8533, "\u2581installeret": 8534, "mas": 8535, "stemte": 8536, "\u2581\u2265": 8537, "hem": 8538, "\u2581destruction": 8539, "\u2581plane": 8540, "\u2581guaranteed": 8541, "\u2581Eu": 8542, "\u2581MED": 8543, "\u2581tilbeh\u00f8r": 8544, "2014": 8545, "\u2581sons": 8546, "lac": 8547, "\u2581assessed": 8548, "\u2581godkendes": 8549, "\u25811.6.": 8550, "\u2581g\u00e6ld": 8551, "\u2581nearly": 8552, "\u2581AL": 8553, "s\u00f8gte": 8554, "cen": 8555, "\u2581Kap": 8556, "rel": 8557, "\u2581betyde": 8558, "osa": 8559, "\u2581Middle": 8560, "\u2581fulfilled": 8561, "\u2581worker": 8562, "3%": 8563, "\u2581exclusive": 8564, "\u2581tilstr\u00e6kkelige": 8565, "4%": 8566, "\u2581threats": 8567, "\u2581sanktioner": 8568, "\u2581lukket": 8569, "ssystemet": 8570, "\u2581Working": 8571, "\u2581cap": 8572, "\u2581myndighederne": 8573, "\u2581Fisheries": 8574, "\u2581landets": 8575, "called": 8576, "\u2581lighting": 8577, "\u2581Derudover": 8578, "\u2581fade": 8579, "\u2581leveres": 8580, "\u2581cloud": 8581, "\u2581konkurrenceevne": 8582, "\u2581destroy": 8583, "\u2581moder": 8584, "\u2581row": 8585, "\u2581core": 8586, "lukke": 8587, "6)": 8588, "\u2581collective": 8589, "\u2581n\u00e6vnes": 8590, "\u2581leaders": 8591, "\u2581composition": 8592, "\u2581reklame": 8593, "alitet": 8594, "\u2581exceptional": 8595, "\u2581soil": 8596, "\u2581demonstrated": 8597, "\u2581uddannelses": 8598, "kere": 8599, "\u2581awarded": 8600, "\u2581transaction": 8601, "anda": 8602, "\u2581mistake": 8603, "sperioden": 8604, "CFSP": 8605, "UP": 8606, "izer": 8607, "RA": 8608, "\u2581situated": 8609, "\u2581wealth": 8610, "\u2581Washington": 8611, "\u2581mikro": 8612, "horn": 8613, "\u2581Saturday": 8614, "/2001": 8615, "\u2581Never": 8616, "\u2581documentation": 8617, "\u2581Region": 8618, "\u2581served": 8619, "\u2581terr": 8620, "graf": 8621, "\u2581sl": 8622, "\u2581Rose": 8623, "midler": 8624, "\u2581FR": 8625, "\u2581vilde": 8626, "\u2581DNA": 8627, "s\u00f8": 8628, "\u2581claimed": 8629, "\u2581ydre": 8630, "\u2581taste": 8631, "\u2581buying": 8632, "\u2581examples": 8633, "\u2581ingredients": 8634, "h\u00e6nger": 8635, "dic": 8636, "\u2581satisfied": 8637, "\u2581R\u00c5DET": 8638, "ytter": 8639, "\u2581knap": 8640, "\u2581leverer": 8641, "\u2581nytte": 8642, "\u2581Helt": 8643, "\u2581fail": 8644, "l\u00f8b": 8645, "\u2581profile": 8646, "lister": 8647, "600": 8648, "\u2581stone": 8649, "\u2581midlertidige": 8650, "\u2581Croatia": 8651, "pu": 8652, "\u2581sought": 8653, "2018": 8654, "rod": 8655, "ass": 8656, "cept": 8657, "\u2581tilbagebetaling": 8658, "\u2581Av": 8659, "xi": 8660, "\u2581CHAPTER": 8661, "\u2581fornyet": 8662, "\u2581m\u00e5le": 8663, "\u2581facing": 8664, "\u2581Station": 8665, "typer": 8666, "\u2581cycle": 8667, "\u2581inspirere": 8668, "\u2581bedes": 8669, "\u2581theory": 8670, "\u25812013.": 8671, "fortsat": 8672, "1%": 8673, "CI": 8674, "\u2581sorte": 8675, "\u2581variable": 8676, "\u2581Traktaten": 8677, "\u2581birds": 8678, "\u2581mer": 8679, "\u2581l\u00e6gemiddel": 8680, "\u2581resistance": 8681, "\u2581Labour": 8682, "etin": 8683, "\u2581Fine": 8684, "\u2581Yderligere": 8685, "erge": 8686, "\u2581peoples": 8687, "huse": 8688, "ender": 8689, "\u2581depending": 8690, "\u2581udfordring": 8691, "7%": 8692, "\u2581achiev": 8693, "\u2581excluded": 8694, "\u2581flexible": 8695, "\u2581forum": 8696, "\u2581excluding": 8697, "\u2581Size": 8698, "\u2581fremgangsm\u00e5de": 8699, "\u2581Treaties": 8700, "smart": 8701, "\u2581Auditors": 8702, "script": 8703, "\u2581flexibility": 8704, "\u00e6nd": 8705, "PE": 8706, "ff": 8707, "\u2581tide": 8708, "\u2581konvention": 8709, "\u2581res": 8710, "ars": 8711, "\u2581Details": 8712, "\u2581anybody": 8713, "layer": 8714, "ytte": 8715, "bare": 8716, "\u2581begr\u00e6nsning": 8717, "\u2581Cypern": 8718, "\u2581kredit": 8719, "\u2581350": 8720, "that": 8721, "\u2581au": 8722, "f\u00f8rende": 8723, "\u2581lady": 8724, "cock": 8725, "\u2581lign": 8726, "site": 8727, "\u2581walking": 8728, "RI": 8729, "\u2581elektriske": 8730, "\u2581Vietnam": 8731, "\u2581midlertidigt": 8732, "essen": 8733, "\u2581milit\u00e6re": 8734, "forskning": 8735, "\u2581messages": 8736, "\u2581calendar": 8737, "\u2581ejendomme": 8738, "\u2581precisely": 8739, "\u2581foruds\u00e6tning": 8740, "\u2581hukommelse": 8741, "\u2581\u00e6ldste": 8742, "rick": 8743, "\u2581awareness": 8744, "\u2581kinds": 8745, "bert": 8746, "qu": 8747, "\u2581holiday": 8748, "istic": 8749, "\u2581mixed": 8750, "rov": 8751, "\u2581rare": 8752, "\u2581terrorism": 8753, "b\u00f8lge": 8754, "h\u00e5nd": 8755, "\u2581Sammen": 8756, "r\u00f8mte": 8757, "\u2581proud": 8758, "\u2581Dal": 8759, "\u2581server": 8760, "He": 8761, "\u2581meddelt": 8762, "\u2581territories": 8763, "lovgivning": 8764, "\u2581survive": 8765, "\u2581synspunkt": 8766, "\u2581cable": 8767, "\u2581HD": 8768, "\u2581universal": 8769, "\u2581mistet": 8770, "stoffer": 8771, "\u2581anf\u00f8res": 8772, "station": 8773, "\u2581permitted": 8774, "cert": 8775, "DI": 8776, "fon": 8777, "\u2581Uni": 8778, "\u2581membership": 8779, "anter": 8780, "\u2581paying": 8781, "\u2581hurtigst": 8782, "\u2581Bel": 8783, "\u00f1": 8784, "\u2581Amerika": 8785, "amil": 8786, "\u2581internettet": 8787, "\u2581brugerne": 8788, "\u2581migration": 8789, "\u2581Samarbejde": 8790, "\u2581stopped": 8791, "\u2581temperaturer": 8792, "\u2581replace": 8793, "\u258115,": 8794, "\u2581ut": 8795, "\u2581styrker": 8796, "\u2581Brazil": 8797, "\u2581Ky": 8798, "\u2581religi\u00f8se": 8799, "\u2581dybt": 8800, "\u2581Aid": 8801, "\u2581kvaliteten": 8802, "\u2581detection": 8803, "\u2581intend": 8804, "\u2581l\u00f8s": 8805, "\u2581stored": 8806, "\u2581gennemsigtighed": 8807, "{": 8808, "\u2581seksuel": 8809, "mile": 8810, "\u2581KAPITEL": 8811, "\u2581presidency": 8812, "\u2581personnel": 8813, "\u2581filled": 8814, "\u2581extensions": 8815, "evnen": 8816, "\u2581\u0392": 8817, "\u2581proved": 8818, "\u2581Latin": 8819, "tjen": 8820, "\u2581overv\u00e5ge": 8821, "pladser": 8822, "800": 8823, "\u2581oppe": 8824, "\u2581bem\u00e6rkes": 8825, "give": 8826, "\u2581Israels": 8827, "\u2581ufor": 8828, "fro": 8829, "via": 8830, "\u2581konkret": 8831, "iller": 8832, "\u2581silver": 8833, "\u2581pludselig": 8834, "uni": 8835, "\u2581Privacy": 8836, "\u2581akt\u00f8rer": 8837, "CC": 8838, "\u2581counter": 8839, "\u2581Annexes": 8840, "\u2581Investment": 8841, "\u2581OECD": 8842, "\u2581m\u00e5let": 8843, "ndt": 8844, "tede": 8845, "\u2581hurtige": 8846, "\u2581divided": 8847, "\u2581passengers": 8848, "\u25812015.": 8849, "\u2581eksponering": 8850, "\u2581rets": 8851, "\u2581passenger": 8852, "\u2581Hal": 8853, "\u2581Via": 8854, "\u2581crew": 8855, "\u2581Third": 8856, "ato": 8857, "\u2581Argentina": 8858, "\u2581pol": 8859, "ela": 8860, "\u2581PA": 8861, "\u2581Inc": 8862, "\u2581formandskabet": 8863, "n\u00e5ede": 8864, "\u2581adskil": 8865, "\u2581proceed": 8866, "\u2581tip": 8867, "\u2581lykkedes": 8868, "\u2581forest": 8869, "\u2581Children": 8870, "\u2581supplementary": 8871, "add": 8872, "\u2581dr\u00f8mme": 8873, "\u2581Internationale": 8874, "TEN": 8875, "\u2581bev\u00e6gelse": 8876, "\u2581indication": 8877, "\u2581beef": 8878, "\u2581invitere": 8879, "erhvervsdrivende": 8880, "\u2581bonus": 8881, "\u2581instant": 8882, "\u2581betingelse": 8883, "\u2581Japanese": 8884, "\u2581female": 8885, "\u2581specify": 8886, "\u2581s\u00e6lger": 8887, "\u25812014.": 8888, "\u2581coast": 8889, "\u2581wi": 8890, "\u2581automatic": 8891, "\u2581forced": 8892, "mov": 8893, "\u2581parent": 8894, "\u2581Travel": 8895, "\u2581jump": 8896, "\u2581Clo": 8897, "\u2581Northern": 8898, "NG": 8899, "\u2581mobility": 8900, "\u2581trusler": 8901, "\u2581selling": 8902, "\u2581apparatus": 8903, "\u2581default": 8904, "\u2581folke": 8905, "\u2581angiver": 8906, "\u2581casino": 8907, "TER": 8908, "key": 8909, "\u2581labelling": 8910, "\u2581Friday": 8911, "\u2581resolutions": 8912, "konventionen": 8913, "\u2581index": 8914, "\u2581konkurrencen": 8915, "\u2581worrie": 8916, "\u2581indicators": 8917, "\u2581Gennem": 8918, "\u2581tilskynde": 8919, "\u2581emotion": 8920, "munity": 8921, "\u2581intelligence": 8922, "\u2581facility": 8923, "AC": 8924, "\u2581dengang": 8925, "\u2581shower": 8926, "\u2581detaljerede": 8927, "zy": 8928, "\u2581ugen": 8929, "kup": 8930, "\u2581committees": 8931, "\u2581mankind": 8932, "\u2581targets": 8933, "\u2581Lom\u00e9": 8934, "\u2581chef": 8935, "\u2581considering": 8936, "SV": 8937, "\u2581deler": 8938, "\u2581semi": 8939, "ament": 8940, "wear": 8941, "\u2581Assembly": 8942, "\u2581Framework": 8943, "MM": 8944, "flugt": 8945, "\u2581respektive": 8946, "fect": 8947, "version": 8948, "\u2581Say": 8949, "\u2581kriminalitet": 8950, "iseret": 8951, "\u2581pet": 8952, "Community": 8953, "\u2581nationer": 8954, "losing": 8955, "rude": 8956, "OW": 8957, "\u2581s\u00f8rger": 8958, "\u2581ensartet": 8959, "\u2581behaviour": 8960, "\u2581Gre": 8961, "\u2581plug": 8962, "\u2581reforms": 8963, "\u2581\u00f8delagt": 8964, "\u2581consisting": 8965, "\u2581Constitution": 8966, "udvalg": 8967, "\u2581arbejdede": 8968, "\u2581udpeget": 8969, "\u2581partnere": 8970, "politiske": 8971, "\u2581gross": 8972, "\u2581multilateral": 8973, "\u2581l\u00e6gen": 8974, "\u2581udenrigs": 8975, "tas": 8976, "\u2581dynamic": 8977, "\u2581sentence": 8978, "\u2581\u00e5rsag": 8979, "\u2581Sound": 8980, "\u2581army": 8981, "\u2581105": 8982, "\u2581fees": 8983, "\u2581mag": 8984, "orer": 8985, "\u2581DK": 8986, "\u2581fag": 8987, "\u2581leads": 8988, "skrifter": 8989, "erhvervsgrenen": 8990, "\u2581Soviet": 8991, "\u2581officer": 8992, "visning": 8993, "\u2581faktor": 8994, "\u2581forfatter": 8995, "\u2581possibilities": 8996, "\u2581Structural": 8997, "\u2581techniques": 8998, "4)": 8999, "imod": 9000, "\u2581problemerne": 9001, "\u2581forsvare": 9002, "\u2581sy": 9003, "\u2581fortjener": 9004, "\u2581renewable": 9005, "search": 9006, "\u2581forel\u00f8bige": 9007, "UL": 9008, "\u2581Global": 9009, "\u2581solely": 9010, "\u2581processen": 9011, "nas": 9012, "\u2581obvious": 9013, "\u2581educational": 9014, "sp\u00e6ndende": 9015, "\u2581Gall": 9016, "cit": 9017, "udi": 9018, "v\u00e6rdi": 9019, "\u2581pr\u00e6mis": 9020, "\u2581udl\u00f8bet": 9021, "\u2581rubber": 9022, "\u2581oils": 9023, "\u2581horse": 9024, "\u2581Bos": 9025, "IR": 9026, "\u2581involvement": 9027, "\u2581sections": 9028, "hole": 9029, "\u2581biler": 9030, "\u2581billed": 9031, "\u2581varerne": 9032, "\u2581Captain": 9033, "\u2581Mis": 9034, "\u2581corner": 9035, "\u2581syg": 9036, "\u2581mindske": 9037, "\u2581secondary": 9038, "\u2581remote": 9039, "\u2581understood": 9040, "\u258116,": 9041, "\u2581valget": 9042, "\u2581136": 9043, "\u2581anmeldelse": 9044, "\u2581hilse": 9045, "\u2581bredde": 9046, "\u2581levnedsmidler": 9047, "ei": 9048, "\u2581grunden": 9049, "\u2581certification": 9050, "\u2581feedback": 9051, "\u2581repeat": 9052, "\u2581(5": 9053, "ode": 9054, "\u2581ligge": 9055, "\u2581Hard": 9056, "\u2581Formand": 9057, "\u2581depends": 9058, "\u2581overholdes": 9059, "\u258190%": 9060, "dannelse": 9061, "kr\u00e6": 9062, "\u25812000,": 9063, "2012": 9064, "\u2581sm\u00f8r": 9065, "oo": 9066, "\u2581Point": 9067, "2004": 9068, "\u2581Bog": 9069, "\u2581Sometimes": 9070, "arve": 9071, "organisationer": 9072, "tery": 9073, "\u2581hj\u00f8rne": 9074, "\u2581udviklede": 9075, "\u2581inflation": 9076, "\u25812004,": 9077, "\u2581reserver": 9078, "had": 9079, "vej": 9080, "\u2581stands": 9081, "\u2581INFORMATION": 9082, "\u2581angive": 9083, "\u2581strongly": 9084, "\u2581F\u00f8lg": 9085, "\u2581perspective": 9086, "istisk": 9087, "\u2581Kra": 9088, "\u2581principal": 9089, "\u2581teori": 9090, "rejse": 9091, "\u2581afg\u00f8relsen": 9092, "\u2581protest": 9093, "\u2581tilknytning": 9094, "\u2581lejligheder": 9095, "bold": 9096, "\u2581henvises": 9097, "\u2581l\u00f8st": 9098, "ote": 9099, "\u2581halvdelen": 9100, "\u2581anerkendt": 9101, "\u2581ordre": 9102, "\u2581lighed": 9103, "\u2581sendes": 9104, "EK": 9105, "aktiviteter": 9106, "\u2581confirm": 9107, "\u2581improvements": 9108, "\u2581varighed": 9109, "\u2581impress": 9110, "\u2581104": 9111, "\u2581sko": 9112, "okker": 9113, "\u2581menneskeheden": 9114, "SP": 9115, "holdt": 9116, "\u2581Tour": 9117, "\u2581bl\u00f8d": 9118, "\u2581(4": 9119, "\u2581tr\u00e6de": 9120, "\u2581direkt\u00f8r": 9121, "\u2581demonstrate": 9122, "\u2581erstattes": 9123, "olie": 9124, "\u2581nede": 9125, "\u2581begyndt": 9126, "\u2581Consequently": 9127, "\u2581derived": 9128, "stan": 9129, "\u2581Kommission": 9130, "\u2581adjustments": 9131, "\u2581gradvis": 9132, "ua": 9133, "print": 9134, "\u2581electrical": 9135, "\u2581Job": 9136, "\u2581winter": 9137, "\u2581hjerne": 9138, "\u2581cream": 9139, "\u2581menneskers": 9140, "\u2581Belgian": 9141, "\u2581bull": 9142, "\u2581heads": 9143, "\u2581regne": 9144, "ula": 9145, "\u2581grav": 9146, "\u2581Pla": 9147, "reglerne": 9148, "\u2581udstedelse": 9149, "giver": 9150, "\u2581tiltag": 9151, "\u2581kilder": 9152, "\u2581Vin": 9153, "\u2581promised": 9154, "\u2581Dec": 9155, "EX": 9156, "\u2581assembly": 9157, "l\u00f8st": 9158, "reaching": 9159, "\u2581veje": 9160, "sin": 9161, "LY": 9162, "\u2581forestille": 9163, "\u2581quarter": 9164, "\u2581afstemningen": 9165, "\u2581shop": 9166, "&": 9167, "\u2581Order": 9168, "\u2581samples": 9169, "-8": 9170, "\u2581constitutes": 9171, "\u2581Individual": 9172, "\u2581Location": 9173, "sal": 9174, "\u2581producing": 9175, "\u2581decrease": 9176, "\u2581dedicated": 9177, "kost": 9178, "pas": 9179, "itation": 9180, "\u2581cotton": 9181, "\u2581enhance": 9182, "\u2581civile": 9183, "\u2581henh\u00f8rer": 9184, "\u2581Holy": 9185, "\u2581constant": 9186, "\u2581s\u00f8vn": 9187, "\u2581maritime": 9188, "\u2581immigration": 9189, "\u2581trials": 9190, "bag": 9191, "\u2581install": 9192, "\u2581sats": 9193, "\u2581perioder": 9194, "m\u00e6nd": 9195, "\u2581omgang": 9196, "\u2581MEP": 9197, "\u2581billedet": 9198, "\u2581elever": 9199, "\u2581stopper": 9200, "rb": 9201, "\u2581eksisterer": 9202, "\u2581influenza": 9203, "\u2581IX": 9204, "OV": 9205, "\u2581inclusion": 9206, "\u2581Dom": 9207, "\u2581Juli": 9208, "\u2581\u00e5bent": 9209, "\u2581f\u00f8res": 9210, "\u2581Form": 9211, "\u2581grants": 9212, "monet\u00e6re": 9213, "\u2581r\u00e5": 9214, "\u2581kvalificeret": 9215, "\u2581happ": 9216, "h\u00f8j": 9217, "\u2581kolonne": 9218, "dr": 9219, "\u2581regerings": 9220, "\u2581Jul": 9221, "\u2581ulykke": 9222, "\u2581spild": 9223, "\u2581trees": 9224, "\u2581tema": 9225, "\u2581transition": 9226, "\u2581afternoon": 9227, "\u2581collect": 9228, "\u2581contents": 9229, "\u2581Medlem": 9230, "\u2581Export": 9231, "\u2581geng\u00e6ld": 9232, "9%": 9233, "\u2581reveal": 9234, "\u2581votes": 9235, "\u2581Long": 9236, "ove": 9237, "\u2581overflade": 9238, "\u2581sake": 9239, "\u2581clearance": 9240, "\u2581relax": 9241, "\u2581exported": 9242, "\u2581vendte": 9243, "\u2581fremlagt": 9244, "ane": 9245, "\u2581Konge": 9246, "fl\u00f8j": 9247, "\u2581l\u00e6ngde": 9248, "\u2581loyal": 9249, "\u2581bem\u00e6rkning": 9250, "\u2581taught": 9251, "iter": 9252, "ulation": 9253, "mappe": 9254, "\u2581diet": 9255, "\u2581fart": 9256, "\u2581bekr\u00e6ftet": 9257, "\u2581faldet": 9258, "\u2581External": 9259, "\u2581missionen": 9260, "grupper": 9261, "TR": 9262, "\u2581cat": 9263, "\u2581brief": 9264, "b\u00e5d": 9265, "\u2581S\u00e5ledes": 9266, "\u2581blanding": 9267, "\u2581lists": 9268, "former": 9269, "\u2581experiences": 9270, "\u2581Hand": 9271, "\u2581opens": 9272, "GO": 9273, "\u2581samhandelen": 9274, "klar": 9275, "\u2581meddelelser": 9276, "MI": 9277, "\u2581kontrolleres": 9278, "\u2581sejr": 9279, "\u2581Maj": 9280, "\u2581fortolkning": 9281, "\u2581detaljeret": 9282, "\u2581cry": 9283, "\u2581launch": 9284, "\u2581S\u00e6rlig": 9285, "\u2581expert": 9286, "\u2581optimal": 9287, "Hvis": 9288, "\u2581foresl\u00e5": 9289, "\u2581n\u00e6rmeste": 9290, "\u2581magazine": 9291, "\u2581bearing": 9292, "FA": 9293, "\u2581whilst": 9294, "\u2581charged": 9295, "\u2581etablere": 9296, "\u2581st\u00f8j": 9297, "\u2581K\u00e6r": 9298, "\u2581pregnant": 9299, "\u2581St\u00f8tte": 9300, "\u2581cooperate": 9301, "made": 9302, "vind": 9303, "\u2581owner": 9304, "\u2581modeller": 9305, "\u2581l\u00f8ses": 9306, "\u2581territorial": 9307, "\u2581euroomr\u00e5det": 9308, "\u2581bund": 9309, "\u2581fed": 9310, "givelse": 9311, "\u2581ordinary": 9312, "\u2581ket": 9313, "IG": 9314, "\u2581middag": 9315, "\u2581travl": 9316, "\u2581kurs": 9317, "\u2581convert": 9318, "pr\u00f8ve": 9319, "\u2581investor": 9320, "\u2581golf": 9321, "kvalitet": 9322, "sdato": 9323, "\u2581diskussion": 9324, "6-": 9325, "\u2581candidate": 9326, "opper": 9327, "\u2581counsel": 9328, "\u2581krone": 9329, "zer": 9330, "\u2581Telephone": 9331, "\u2581BY": 9332, "\u2581associations": 9333, "\u2581flesh": 9334, "RS": 9335, "\u2581etablering": 9336, "\u2581Exchange": 9337, "\u2581\u00f8verste": 9338, "EA": 9339, "\u2581naturlig": 9340, "projekter": 9341, "\u2581Uruguay": 9342, "\u2581demokratisk": 9343, "\u2581subsidies": 9344, "baseret": 9345, "you": 9346, "\u2581tabt": 9347, "\u2581K\u00f8b": 9348, "\u2581organised": 9349, "\u2581koordinering": 9350, "\u2581\u03bd": 9351, "\u2581meste": 9352, "\u2581freml\u00e6gge": 9353, "2006": 9354, "\u2581b\u00f8rne": 9355, "\u2581sammenlignet": 9356, "nin": 9357, "\u2581flygte": 9358, "\u2581f\u00f8lte": 9359, "bidrag": 9360, "\u2581AUTHORISATION": 9361, "SK": 9362, "tak": 9363, "\u2581advertising": 9364, "selskab": 9365, "\u2581favourable": 9366, "\u2581sti": 9367, "l\u00e6n": 9368, "h\u00e6": 9369, "\u2581vinter": 9370, "\u2581hid": 9371, "ativ": 9372, "\u2581premium": 9373, "\u2581president": 9374, "\u2581Menneske": 9375, "\u2581expenses": 9376, "\u2581personoplysning": 9377, "\u25812005,": 9378, "\u2581village": 9379, "eur": 9380, "nk": 9381, "\u258160%": 9382, "\u2581garantier": 9383, "\u2581serie": 9384, "\u258117,": 9385, "\u2581140": 9386, "elt": 9387, "fang": 9388, "\u2581forbliver": 9389, "\u2581qualifications": 9390, "\u2581h\u00e5ndtere": 9391, "\u2581Department": 9392, "\u2581Leg": 9393, "\u2581Ungarn": 9394, "\u2581anmodet": 9395, "-1-": 9396, "klippe": 9397, "\u2581teknologier": 9398, "\u2581Luc": 9399, "\u2581fremsatte": 9400, "jen": 9401, "\u2581broder": 9402, "l\u00e6sning": 9403, "\u2581fattigdom": 9404, "\u2581emphasis": 9405, "^": 9406, "lation": 9407, "\u2581Ve": 9408, "\u2581klokke": 9409, "ATION": 9410, "\u2581almindeligt": 9411, "\u2581execution": 9412, "\u2581landes": 9413, "plader": 9414, "\u2581Cla": 9415, "\u2581department": 9416, "\u2581clothes": 9417, "iness": 9418, "\u2581mistede": 9419, "\u2581bekr\u00e6fter": 9420, "OT": 9421, "\u2581suffered": 9422, "5-0": 9423, "\u2581styring": 9424, "\u2581115": 9425, "\u2581t\u00e6nder": 9426, "\u2581langs": 9427, "\u2581slave": 9428, "\u2581fjernet": 9429, "lovgivningen": 9430, "\u2581fastsl\u00e5": 9431, "\u2581mandat": 9432, "\u2581senge": 9433, "\u2581originale": 9434, "\u2581sharing": 9435, "\u2581Supplement": 9436, "\u2581infusion": 9437, "\u2581checked": 9438, "\u2581deficit": 9439, "b\u00f8d": 9440, "gh": 9441, "lette": 9442, "nik": 9443, "ioner": 9444, "linje": 9445, "\u2581br\u00e6ndstof": 9446, "\u2581Rev": 9447, "\u2581division": 9448, "\u2581Tor": 9449, "\u2581194": 9450, "\u2581push": 9451, "\u00c9": 9452, "If": 9453, "\u2581Energi": 9454, "\u2581kr\u00e6vede": 9455, "\u25811.5": 9456, "\u2581101": 9457, "\u2581byder": 9458, "\u2581answered": 9459, "sko": 9460, "\u25812000.": 9461, "\u2581Big": 9462, "\u2581kriterierne": 9463, "\u2581oprettelsen": 9464, "\u2581s\u00e6rdeles": 9465, "400": 9466, "\u2581nobody": 9467, "\u2581maks": 9468, "\u2581victim": 9469, "\u2581S\u00e5danne": 9470, "\u2581cutting": 9471, "\u2581Nordisk": 9472, "UD": 9473, "\u2581killing": 9474, "risk": 9475, "\u2581institutionelle": 9476, "/100": 9477, "\u2581affecting": 9478, "\u2581afspejler": 9479, "\u2581egnet": 9480, "\u2581voluntary": 9481, "\u2581bright": 9482, "\u2581sending": 9483, "\u2581incurred": 9484, "\u2581afgift": 9485, "\u2581Bulgarien": 9486, "\u2581konstateret": 9487, "\u2581d\u00e5rlige": 9488, "\u2581Pack": 9489, "lash": 9490, "\u2581EXP": 9491, "BS": 9492, "\u2581prescribed": 9493, "2013": 9494, "TC": 9495, "\u2581MA": 9496, "control": 9497, "film": 9498, "operativ": 9499, "\u2581terror": 9500, "\u2581urge": 9501, "cor": 9502, "\u2581dr\u00f8ftelser": 9503, "l\u00e5": 9504, "\u2581presents": 9505, "\u2581bedt": 9506, "billede": 9507, "\u2581vanskelige": 9508, "\u2581Email": 9509, "ache": 9510, "8%": 9511, "d\u00f8mmelse": 9512, "telse": 9513, "akt": 9514, "\u2581efterkomme": 9515, "\u2581registry": 9516, "\u2581Bureau": 9517, "\u2581courts": 9518, "\u2581equality": 9519, "\u2581flying": 9520, "loven": 9521, "\u2581define": 9522, "MB": 9523, "\u2581Kirk": 9524, "\u2581surprise": 9525, "\u2581parliamentary": 9526, "stock": 9527, "\u2581F\u00e6llesskabs": 9528, "\u2581narkotika": 9529, "\u2581remained": 9530, "\u2581spoken": 9531, "\u2581koncentration": 9532, "\u2581ber": 9533, "\u00f8rer": 9534, "uz": 9535, "\u2581objects": 9536, "s\u00e6tte": 9537, "\u2581108": 9538, "uddannelse": 9539, "\u2581excessive": 9540, "\u2581elected": 9541, "\u2581recognized": 9542, "\u2581Mass": 9543, "\u2581Centralbank": 9544, "\u2581circulation": 9545, "\u2581opdatering": 9546, "\u2581Franc": 9547, "\u2581household": 9548, "neskerettigheds": 9549, "\u2581cup": 9550, "\u2581alia": 9551, "vogn": 9552, "\u2581begrundelse": 9553, "\u2581fremad": 9554, "\u2581indicates": 9555, ".';": 9556, "sager": 9557, "\u2581sk\u00e6re": 9558, "\u2581destroyed": 9559, "\u2581dommer": 9560, "\u2581River": 9561, "ising": 9562, "atch": 9563, "\u2581kv": 9564, "tige": 9565, "\u2581Afdeling": 9566, "\u2581Gro": 9567, "\u2581ER": 9568, "\u2581hindringer": 9569, "ark": 9570, "mira": 9571, "zza": 9572, "cut": 9573, "name": 9574, "BC": 9575, "\u2581fjern": 9576, "\u258110-": 9577, "manden": 9578, "\u2581ceiling": 9579, "materiale": 9580, "\u2581udarbejdelsen": 9581, "-14": 9582, "\u2581hjul": 9583, "\u2581underskud": 9584, "\u2581Person": 9585, "\u2581konference": 9586, "\u2581differ": 9587, "ml": 9588, "\u2581eggs": 9589, "\u2581hustru": 9590, "KE": 9591, "FI": 9592, "\u2581stik": 9593, "\u2581opfyldelse": 9594, "\u2581Given": 9595, "\u25812.5": 9596, "\u2581humanitarian": 9597, "\u2581tilslutning": 9598, "zen": 9599, "\u2581theme": 9600, "\u2581flash": 9601, "\u2581inklusive": 9602, "\u2581identificere": 9603, "\u2581launched": 9604, "\u00f8jelse": 9605, "\u2581lamp": 9606, "La": 9607, "v\u00e6gt": 9608, "\u2581chair": 9609, "\u2581tackle": 9610, "verse": 9611, "\u2581conservation": 9612, "\u2581rice": 9613, "\u2581Further": 9614, "\u2581BT": 9615, "\u2581farming": 9616, "\u00f3n": 9617, "\u2581Bay": 9618, "\u2581femte": 9619, "\u2581Buy": 9620, "\u2581Electric": 9621, "\u2581tested": 9622, "ics": 9623, "l\u00f8n": 9624, "\u2581smooth": 9625, "\u2581ark": 9626, "opkald": 9627, "\u2581manager": 9628, "\u2581banker": 9629, "\u2581convinced": 9630, "\u00e6d": 9631, "\u2581gul": 9632, "\u2581lying": 9633, "phy": 9634, "\u2581submission": 9635, "\u2581Instance": 9636, "ese": 9637, "\u25811.1": 9638, "\u2581reservedele": 9639, "\u2581betales": 9640, "\u2581independence": 9641, "\u2581partly": 9642, "\u2581Sort": 9643, "\u2581vejret": 9644, "\u2581encounter": 9645, "\u2581indtryk": 9646, "excl": 9647, "\u2581journey": 9648, "\u2581valuable": 9649, "\u2581\u00f8nsket": 9650, "obby": 9651, "\u2581asset": 9652, "\u2581institutionerne": 9653, "\u2581involves": 9654, "NO": 9655, "databasen": 9656, "\u2581tydelig": 9657, "\u2581career": 9658, "domme": 9659, "\u2581Gas": 9660, "\u2581Nos": 9661, "\u2581exclusively": 9662, "l\u00e6gger": 9663, "\u2581Sc": 9664, "\u2581switch": 9665, "\u2581complaint": 9666, "\u2581bane": 9667, "TT": 9668, "\u2581fill": 9669, "\u2581relief": 9670, "oz": 9671, "tyr": 9672, "\u2581empty": 9673, "aster": 9674, "ame": 9675, "\u2581Bland": 9676, "\u2581fastl\u00e6ggelse": 9677, "\u2581Lov": 9678, "tning": 9679, "\u2581forbundne": 9680, "ij": 9681, "odi": 9682, "\u2581medlems": 9683, "\u2581wave": 9684, "\u2581demonstration": 9685, "\u2581jule": 9686, "tric": 9687, "\u2581School": 9688, "\u2581kv\u00e6g": 9689, "\u2581Institution": 9690, "\u2581interface": 9691, "\u2581spiser": 9692, "\u2581movements": 9693, "GB": 9694, "\u2581bygning": 9695, "tiv": 9696, "\u2581pensions": 9697, "yk": 9698, "\u25812007,": 9699, "sproceduren": 9700, "St": 9701, "\u2581virksomhedens": 9702, "\u2581adapt": 9703, "\u2581AU": 9704, "\u2581hoc": 9705, "\u2581reparation": 9706, "\u2581bomb": 9707, "gate": 9708, "wan": 9709, "\u2581college": 9710, "\u2581elev": 9711, "\u2581Nye": 9712, "\u2581Microsoft": 9713, "\u2581beslutte": 9714, "\u2581busy": 9715, "TH": 9716, "\u2581measurement": 9717, "\u2581Saul": 9718, "befa": 9719, "\u2581contrast": 9720, "Ge": 9721, "\u2581Taiwan": 9722, "\u2581Wien": 9723, "\u2581Direct": 9724, "agon": 9725, "\u2581138": 9726, "\u2581begrebet": 9727, "m\u00e6ndene": 9728, "\u2581feelings": 9729, "\u2581Mas": 9730, "\u2581concert": 9731, "gram": 9732, "\u2581edition": 9733, "\u2581arrest": 9734, "frit": 9735, "bru": 9736, "\u2581brud": 9737, "l\u00e5n": 9738, "\u2581virtual": 9739, "\u2581judge": 9740, "\u2581Explo": 9741, "\u2581leveret": 9742, "\u2581kost": 9743, "\u2581bem\u00e6rker": 9744, "\u2581tilsyneladende": 9745, "\u2581forbedret": 9746, "\u2581fulgte": 9747, "\u2581kvalifikationer": 9748, "\u2581epi": 9749, "-4-": 9750, "\u2581ans\u00e6ttelse": 9751, "\u2581zones": 9752, "ssen": 9753, "2%": 9754, "\u2581historical": 9755, "\u2581usual": 9756, "\u2581adjusted": 9757, "\u2581client": 9758, "\"-": 9759, "\u2581mountain": 9760, "\u2581beskyttelses": 9761, "\u2581strip": 9762, "\u2581fabrik": 9763, "hyggelig": 9764, "orme": 9765, "sendelse": 9766, "\u2581manual": 9767, "\u2581acquired": 9768, "\u2581advokat": 9769, "\u2581cirka": 9770, "\u2581daglig": 9771, "\u2581smell": 9772, "tol": 9773, "lever": 9774, "bureau": 9775, "\u2581Mol": 9776, "\u2581Appendix": 9777, "\u2581189": 9778, "f\u00e6": 9779, "\u2581onto": 9780, "s\u00e6tter": 9781, "\u2581Culture": 9782, "\u2581forudg\u00e5ende": 9783, "\u2581rimeligt": 9784, "\u2581begr\u00e6nsede": 9785, "\u2581tidspunktet": 9786, "\u2581slightly": 9787, "\u2581GR": 9788, "\u2581ulovlig": 9789, "\u2581Holland": 9790, "\u2581r\u00e5dgivning": 9791, "\u2581blade": 9792, "aner": 9793, "\u2581Indtil": 9794, "\u2581dl": 9795, "\u2581Hy": 9796, "national": 9797, "\u2581talked": 9798, "\u2581ovenst\u00e5ende": 9799, "\u2581analyserer": 9800, "\u2581luften": 9801, "\u2581forskrifter": 9802, "\u2581maintaining": 9803, "\u2581krigen": 9804, "\u2581faster": 9805, "\u2581feels": 9806, "\u2581absolute": 9807, "\u2581drinking": 9808, "\u2581engines": 9809, "\u2581roligt": 9810, "\u2581dr\u00f8fte": 9811, "1-": 9812, "\u00e6lde": 9813, "\u2581kendetegn": 9814, "ility": 9815, "jeg": 9816, "kn": 9817, "produkt": 9818,
[...]
